<unk>	0
<s>	0
</s>	0
<pad>	0
▁	-2.60925
、	-3.41857
。	-3.66085
の	-4.0515
は	-4.41075
が	-4.52294
?	-4.59397
で	-4.59803
に	-4.63402
ー	-4.98242
を	-5.08464
と	-5.11116
も	-5.11204
って	-5.13861
か	-5.17974
な	-5.21237
ね	-5.29783
から	-5.43442
...	-5.459
(	-5.55266
し	-5.5811
!	-5.61062
い	-5.61857
)	-5.68885
よ	-5.71178
とか	-5.72278
る	-5.74892
です	-5.76616
ん	-5.97468
た	-6.00604
お	-6.02345
w	-6.07383
でも	-6.07529
さ	-6.07805
ら	-6.10454
して	-6.10986
そう	-6.13777
だ	-6.14513
て	-6.1608
▁うん	-6.16314
ない	-6.17414
り	-6.1776
なんか	-6.22963
く	-6.26439
人	-6.26582
あ	-6.26726
や	-6.28664
けど	-6.29617
わ	-6.30833
した	-6.37254
1	-6.38418
する	-6.38597
だから	-6.40242
もう	-6.46128
▁あ	-6.46258
き	-6.47831
す	-6.47869
ス	-6.50484
かな	-6.53283
()	-6.54752
なら	-6.55349
ですね	-6.58388
その	-6.62733
う	-6.64263
み	-6.65235
さん	-6.65374
だけ	-6.70493
ある	-6.73364
2	-6.73861
え	-6.7413
っ	-6.74749
った	-6.75042
ル	-6.78039
ま	-6.79047
うん	-6.80458
これ	-6.80722
何	-6.83581
つ	-6.84188
こ	-6.86177
あの	-6.87819
それ	-6.88109
いい	-6.88893
」	-6.91257
イ	-6.92776
3	-6.93486
▁あー	-6.95786
「	-6.95974
ば	-6.99889
ぞ	-7.00413
れ	-7.00432
だった	-7.01776
あれ	-7.02975
～	-7.03437
ち	-7.04723
んだ	-7.05224
〜	-7.0606
じゃない	-7.07141
ます	-7.07679
ン	-7.08505
ろ	-7.08637
ク	-7.08662
ア	-7.10157
今	-7.1024
してる	-7.10301
ねえ	-7.12551
め	-7.13168
ω	-7.13183
なぁ	-7.13815
リ	-7.13879
ッ	-7.1484
ちょっと	-7.15032
日	-7.15408
ド	-7.16241
ねー	-7.16523
カ	-7.17531
ト	-7.17654
まで	-7.17738
時間	-7.18233
なかった	-7.18535
ので	-7.18574
マ	-7.19782
よね	-7.20276
いた	-7.20601
4	-7.2335
できる	-7.24129
▁お	-7.24575
中	-7.24692
この	-7.25593
ました	-7.25644
分	-7.25652
すごい	-7.26083
こと	-7.26217
5	-7.26221
む	-7.29454
▁なんか	-7.29974
コ	-7.30092
▁いや	-7.30137
やつ	-7.30626
年	-7.3079
じゃん	-7.31283
ですか	-7.31407
▁あら	-7.31585
▁そう	-7.33008
大	-7.33171
たら	-7.33342
いる	-7.33405
・	-7.34031
何か	-7.34196
け	-7.34198
見	-7.34637
こう	-7.35598
タ	-7.35616
しか	-7.35821
せ	-7.35859
っていう	-7.36235
回	-7.37246
私	-7.38052
ラ	-7.38199
だよ	-7.3832
さー	-7.38717
じゃ	-7.38797
んだけど	-7.39002
ねぇ	-7.39057
o	-7.39362
.	-7.41908
手	-7.42891
時	-7.43602
くらい	-7.4366
ぐらい	-7.43699
i	-7.43978
▁うーん	-7.44569
んで	-7.45856
よう	-7.46013
・・・	-7.4811
だけど	-7.48618
一	-7.48912
s	-7.49027
A	-7.49321
6	-7.49755
ゲーム	-7.51066
チ	-7.51301
まあ	-7.51484
かった	-7.51872
d	-7.52549
には	-7.52617
ブ	-7.52759
a	-7.5384
出	-7.54284
ご	-7.54352
▁でも	-7.55295
キ	-7.55502
▁それ	-7.55642
目	-7.55851
になる	-7.56236
ミ	-7.56446
だと	-7.56511
もの	-7.56589
シ	-7.57651
!!	-7.58555
-	-7.59046
レ	-7.59364
やって	-7.59605
u	-7.59992
あった	-7.60121
子	-7.60446
じ	-7.60656
ですよ	-7.60937
話	-7.61273
10	-7.61654
どう	-7.61704
のか	-7.61881
という	-7.61954
やる	-7.62021
▁まあ	-7.62179
ウ	-7.62277
でしょう	-7.62277
ロ	-7.62597
したら	-7.6273
違う	-7.62978
ど	-7.63331
0	-7.6344
ちゃん	-7.63577
ふ	-7.63742
ってる	-7.63824
みたいな	-7.64989
オ	-7.65044
なんて	-7.65081
結構	-7.65463
p	-7.65733
前	-7.65934
方	-7.66033
気	-7.66756
なあ	-7.66837
本	-7.67331
▁あっ	-7.67512
がある	-7.67546
ナ	-7.68055
そ	-7.68512
よく	-7.6863
なので	-7.6875
力	-7.69082
M	-7.69102
あと	-7.69494
月	-7.69654
エ	-7.69853
事	-7.70031
いて	-7.70651
みたい	-7.70664
上	-7.70677
数	-7.70895
まだ	-7.7173
者	-7.71935
感じ	-7.72787
いや	-7.7334
▁もう	-7.73458
...?	-7.73962
▁おはようございます	-7.74322
なん	-7.74365
でしょ	-7.74689
|	-7.747
F	-7.7472
やん	-7.74988
▁これ	-7.75006
円	-7.7504
それは	-7.75041
メ	-7.75062
わけ	-7.75149
7	-7.75234
より	-7.75255
らしい	-7.75404
鯖	-7.75615
S	-7.75646
8	-7.75663
k	-7.75754
▁うわ	-7.75761
C	-7.75816
ム	-7.76527
と思う	-7.76783
物	-7.77047
バ	-7.77159
生	-7.77172
e	-7.77616
び	-7.77874
そういう	-7.78045
9	-7.78173
金	-7.78339
のは	-7.78926
また	-7.80148
やっぱり	-7.80148
れる	-7.81088
下	-7.81108
ノ	-7.81629
m	-7.81632
^	-7.81699
れば	-7.818
ぐ	-7.81908
ぁ	-7.82746
になった	-7.82748
ニ	-7.82777
みんな	-7.83261
俺	-7.83334
T	-7.83583
できない	-7.83621
します	-7.84202
好き	-7.84334
D	-7.84829
もん	-7.85116
あー	-7.85477
用	-7.85815
ぬ	-7.85867
▁今	-7.86373
たい	-7.86412
そんな	-7.86572
になって	-7.86665
P	-7.86667
t	-7.87005
E	-7.87305
だって	-7.87392
体	-7.87648
**	-7.87662
ような	-7.87914
草	-7.88347
ぶ	-7.88443
ひ	-7.88867
ツ	-7.88953
とこ	-7.89283
モ	-7.894
きた	-7.8969
ガ	-7.89823
学	-7.90006
水	-7.90298
ット	-7.90338
へ	-7.90592
ダ	-7.90956
ジ	-7.91107
あのー	-7.91506
んですか	-7.91776
なー	-7.92013
スト	-7.92168
すぎる	-7.92341
では	-7.92722
ぜ	-7.92726
なんで	-7.93547
化	-7.93653
サ	-7.93696
うーん	-7.93776
なんだ	-7.93971
大丈夫	-7.9402
っと	-7.94319
テ	-7.94411
▁ああ	-7.9477
かも	-7.95266
フ	-7.95282
y	-7.95343
パ	-7.95357
名	-7.95617
しない	-7.9608
ボ	-7.96604
万	-7.96686
ですよね	-7.96692
r	-7.9691
c	-7.97273
▁́	-7.97288
なの	-7.97337
んだよ	-7.98251
全部	-7.98306
げ	-7.98513
言って	-7.98946
▁じゃあ	-7.99172
音	-7.99202
てる	-7.99313
良い	-7.99488
▁え	-7.99722
とは	-8.00028
無	-8.0021
n	-8.00311
l	-8.00378
ぇ	-8.00414
したい	-8.00466
にも	-8.00564
じゃあ	-8.00702
意味	-8.00988
ケ	-8.0111
ネ	-8.01281
▁おはよう	-8.01302
プ	-8.01409
やった	-8.01437
べ	-8.01802
▁何	-8.01863
会	-8.01885
性	-8.01923
外	-8.02129
パン	-8.0238
▁なるほど	-8.02935
I	-8.03007
行く	-8.03123
b	-8.03145
▁あれ	-8.03498
家	-8.0364
全然	-8.03792
・)	-8.03982
っす	-8.04418
わかる	-8.04613
語	-8.04624
度	-8.0475
ww	-8.05077
後	-8.05078
ええ	-8.05785
ず	-8.05937
地	-8.06399
食	-8.06462
O	-8.06643
顔	-8.07059
グ	-8.07392
めっちゃ	-8.07589
国	-8.07656
される	-8.07754
だし	-8.0797
しました	-8.08016
系	-8.08038
と思って	-8.0858
B	-8.08752
高	-8.0954
すぎ	-8.09572
人が	-8.09609
:	-8.09614
入	-8.09863
色	-8.09943
とき	-8.10065
してた	-8.10134
よかった	-8.1021
最近	-8.10342
見て	-8.10417
20	-8.10499
ちゃ	-8.10594
G	-8.10619
だめ	-8.10808
くる	-8.11186
~~	-8.11251
デ	-8.1134
的に	-8.11887
らない	-8.11963
された	-8.12318
ほんと	-8.12829
ズ	-8.12979
ピ	-8.13059
R	-8.13149
いない	-8.13361
言う	-8.13565
作	-8.13998
g	-8.14204
▁それは	-8.14981
着	-8.15064
f	-8.15106
▁だから	-8.15176
ください	-8.15263
ビ	-8.15364
▁はい	-8.15487
々	-8.15577
のかな	-8.15677
それで	-8.15736
ゾ	-8.15812
クソ	-8.15848
ところ	-8.16086
合	-8.16132
わからん	-8.16168
寝	-8.16175
やってる	-8.16307
▁なんで	-8.16407
行	-8.16638
すぎて	-8.1672
長	-8.16894
感	-8.17201
的な	-8.17371
ヤ	-8.17522
のに	-8.1765
だろ	-8.17768
んですけど	-8.17774
だな	-8.17795
あんまり	-8.18208
機	-8.1831
イン	-8.18489
怖い	-8.18696
くない	-8.1872
はず	-8.18737
死	-8.18739
さあ	-8.1893
ほ	-8.19173
います	-8.19276
寝る	-8.19543
じゃなくて	-8.19567
/	-8.19618
ぃ	-8.19785
ちゃう	-8.19788
通	-8.19832
ぼ	-8.20112
られる	-8.20289
食べ	-8.2053
ック	-8.20966
学校	-8.21003
ますよ	-8.21308
私は	-8.21958
持って	-8.22292
ター	-8.22341
行って	-8.22373
多分	-8.22409
ますね	-8.22567
ないから	-8.22569
ここ	-8.22648
二	-8.22718
レベル	-8.22791
高い	-8.24489
くなる	-8.24521
今日	-8.24625
▁ええ	-8.25008
しよう	-8.25386
チャンネル	-8.25553
なる	-8.25868
ると	-8.25959
点	-8.25996
なく	-8.26277
はい	-8.26352
不	-8.26371
▁その	-8.26392
スマホ	-8.26721
声	-8.27015
(?)	-8.27146
▁̇	-8.27186
こっち	-8.27524
なくて	-8.2755
どこ	-8.27561
ポ	-8.28305
として	-8.28362
だったら	-8.28467
だけで	-8.28616
いく	-8.28654
ぎ	-8.28693
車	-8.28694
かわいい	-8.28776
見た	-8.28881
絶対	-8.29064
されて	-8.29196
神	-8.29334
空	-8.29761
やばい	-8.29795
ヒ	-8.29807
H	-8.29815
入れ	-8.29969
U	-8.29996
ですねぇ	-8.30124
v	-8.3019
!?	-8.30209
暇	-8.30367
説	-8.30415
気がする	-8.30571
名前	-8.30573
ほんとに	-8.30712
心	-8.30807
ないと	-8.31042
の方が	-8.31284
がない	-8.31336
使う	-8.31594
▁そうだよ	-8.31641
ワ	-8.31699
買って	-8.31753
口	-8.32146
なのか	-8.32211
L	-8.32502
PC	-8.32572
▁あと	-8.3261
*	-8.32675
味	-8.32684
別	-8.32753
▁この	-8.33123
ハ	-8.33673
内	-8.33732
セ	-8.33908
男	-8.34217
人間	-8.34615
小	-8.34723
ざ	-8.34931
ベ	-8.34953
夜	-8.34982
▁う	-8.35031
たぶん	-8.35081
やろ	-8.35113
すると	-8.35435
重	-8.35635
コン	-8.35698
サーバー	-8.3599
君	-8.36087
だね	-8.36197
頭	-8.36221
直	-8.36369
無理	-8.36429
文	-8.36431
少し	-8.36463
多い	-8.36571
発	-8.36658
来	-8.36665
ちゃんと	-8.36866
楽しい	-8.37032
んだよね	-8.37176
の人	-8.37196
んですよ	-8.3732
くて	-8.37361
ぅ	-8.37492
だよね	-8.37605
ゴ	-8.37706
間	-8.37743
ゆ	-8.37766
ーン	-8.37785
でした	-8.37999
▁よろしくお願いします	-8.38061
同じ	-8.38288
人は	-8.38532
元	-8.38791
というか	-8.38892
来た	-8.38998
普通に	-8.39115
NO	-8.39158
ール	-8.39221
▁私	-8.39531
知らない	-8.39546
リー	-8.39819
30	-8.39851
戦	-8.40005
だろう	-8.4012
あっ	-8.40212
三	-8.40327
っていうか	-8.40343
ほど	-8.40364
世界	-8.40536
の方	-8.40659
ほしい	-8.40666
ときに	-8.40745
方が	-8.40814
▁*	-8.40918
のが	-8.41269
▁くさ	-8.41307
V	-8.41385
すぐ	-8.41838
れて	-8.42378
日本	-8.4249
先生	-8.4255
場	-8.42558
笑	-8.4276
あり	-8.4288
んだろう	-8.42913
足	-8.42928
h	-8.43115
前に	-8.43132
欲しい	-8.43162
曲	-8.4351
られた	-8.43633
▁こんばんは	-8.43706
んです	-8.4379
かもしれない	-8.43854
▁ちょっと	-8.43982
問題	-8.44112
自	-8.44534
知	-8.44735
画像	-8.4506
しまった	-8.4507
英語	-8.45093
山	-8.45162
にして	-8.45166
もっと	-8.4529
ろう	-8.45318
ずっと	-8.45603
ってこと	-8.45657
ましょう	-8.4572
大変	-8.4586
明日	-8.45873
悪い	-8.45903
道	-8.4592
ったら	-8.45925
これは	-8.46087
N	-8.463
勉強	-8.46303
別に	-8.46367
気が	-8.46465
▁よろしく	-8.47042
理	-8.4719
やっぱ	-8.47319
わかんない	-8.47443
一番	-8.4747
......	-8.4764
ワイ	-8.47713
解	-8.47726
ません	-8.4778
悪	-8.47881
先	-8.47931
あたし	-8.48027
ギ	-8.4808
れない	-8.48085
ではない	-8.48139
所	-8.48292
のやつ	-8.48438
版	-8.48456
自分	-8.48647
ぞい	-8.48771
よー	-8.48802
嫌い	-8.49444
ソ	-8.49641
www	-8.49814
日本語	-8.49978
だっけ	-8.50028
るから	-8.50295
くれ	-8.50541
すき	-8.50553
▁えぇ	-8.50645
うんこ	-8.50904
火	-8.50938
こんな	-8.50953
x	-8.50983
作って	-8.51061
とか言って	-8.51451
er	-8.51556
テスト	-8.51575
部	-8.51606
▁ふーん	-8.51655
ティ	-8.51832
朝	-8.51961
指	-8.52072
してない	-8.52188
すごく	-8.52344
K	-8.52569
面白い	-8.52672
時に	-8.52759
なきゃ	-8.52786
つか	-8.528
個	-8.5282
!!!	-8.53145
お金	-8.53238
▁まぁ	-8.53415
白	-8.54071
ペ	-8.54177
くん	-8.54293
早く	-8.54496
自分の	-8.54507
面	-8.54508
しい	-8.54547
来て	-8.54548
ァ	-8.54667
いって	-8.5467
作った	-8.5482
z	-8.54899
入って	-8.54969
れた	-8.55356
で草	-8.55616
んじゃ	-8.55777
夢	-8.55852
j	-8.5589
バー	-8.55897
あって	-8.55927
ないです	-8.55958
歌	-8.56042
大学	-8.56188
るの	-8.56451
難しい	-8.56707
のね	-8.56711
行った	-8.56754
いろいろ	-8.56818
ぉ	-8.56884
うち	-8.57071
必要	-8.57439
親	-8.57491
聞いて	-8.5757
きました	-8.57632
民	-8.57665
そんなに	-8.57878
設定	-8.57919
ながら	-8.58295
部屋	-8.58309
▁私は	-8.58393
死ぬ	-8.58463
的	-8.58706
おいしい	-8.58784
わからない	-8.58867
▁1	-8.5891
全	-8.58921
つく	-8.58995
仕事	-8.59035
代	-8.59137
友達	-8.59138
んの	-8.59142
使い	-8.59209
買う	-8.59262
入れて	-8.59445
っけ	-8.59734
つけ	-8.60162
取り	-8.60282
ーん	-8.60302
成	-8.60347
そうだ	-8.60414
おい	-8.60526
考え	-8.60704
お前	-8.60849
強	-8.60851
文字	-8.60863
位	-8.60885
無い	-8.60928
私も	-8.61063
▁俺	-8.6134
▁**	-8.61348
立	-8.61791
ネタ	-8.62117
からね	-8.62275
動画	-8.623
線	-8.6235
ほら	-8.62374
形	-8.62424
ホ	-8.62472
かい	-8.62511
きて	-8.62683
いいよ	-8.62701
使って	-8.62763
奴	-8.62938
マン	-8.6302
なし	-8.63072
やめ	-8.63893
方がいい	-8.63931
知ってる	-8.64255
楽	-8.64511
かなー	-8.64977
買った	-8.65042
ないけど	-8.65345
re	-8.65353
うどん	-8.65391
だれ	-8.65408
なんだけど	-8.65444
シャ	-8.65479
パソコン	-8.65679
何も	-8.65812
やり	-8.65821
けどね	-8.65883
来る	-8.65904
強い	-8.65994
流	-8.66189
自分で	-8.66352
Y	-8.66475
て草	-8.66505
以外	-8.66819
の話	-8.66916
正	-8.66928
んだって	-8.6695
"	-8.67012
チャ	-8.6716
動	-8.67164
しかない	-8.67223
だと思う	-8.67405
しろ	-8.67406
言い	-8.67488
書いて	-8.67499
▁あの	-8.67686
そういうの	-8.67699
▁ふむ	-8.67757
ああ	-8.67815
実	-8.67899
やら	-8.67988
あります	-8.68146
らん	-8.68184
ことを	-8.68227
▁E	-8.6836
える	-8.68379
あら	-8.6839
変	-8.6848
肉	-8.68899
;	-8.68903
めて	-8.68977
ゲ	-8.69063
ネット	-8.69514
わたし	-8.69533
100	-8.69771
新	-8.69936
それを	-8.70068
いっぱい	-8.70306
▁えっ	-8.70349
田	-8.70419
一応	-8.70905
X	-8.70979
なのに	-8.71071
もある	-8.71105
氏	-8.71107
W	-8.71234
作る	-8.71352
以上	-8.71371
=	-8.71386
教	-8.71603
返	-8.71655
美味しい	-8.71683
ーい	-8.71722
んじゃない	-8.71779
早い	-8.71807
きます	-8.71836
怒	-8.71961
出て	-8.72052
いつ	-8.72256
しゃ	-8.7236
女	-8.72419
音楽	-8.7244
12	-8.72442
半	-8.72474
情報	-8.72529
おる	-8.72669
15	-8.72671
かー	-8.72784
食べて	-8.72863
ただ	-8.72922
会話	-8.72993
Discord	-8.73381
じゃね	-8.73387
って感じ	-8.73453
風	-8.73511
歳	-8.73524
まって	-8.73538
ザ	-8.73762
カス	-8.73774
誰	-8.73781
同	-8.73849
僕	-8.73877
嫌	-8.74046
超	-8.74084
まぁ	-8.74118
ラン	-8.74211
すれば	-8.74342
ちゃった	-8.74357
んな	-8.74521
色々	-8.74549
って言って	-8.74553
いつも	-8.74694
バイト	-8.74874
やろう	-8.74876
そうか	-8.74962
...(	-8.7497
そっか	-8.75017
うわ	-8.75025
にする	-8.75169
なさい	-8.75281
アレ	-8.75316
んですね	-8.75495
ように	-8.75539
熱	-8.75548
はない	-8.75614
▁おやすみ	-8.7576
次	-8.76416
メンション	-8.76434
ロー	-8.76508
どっち	-8.76738
▁そういえば	-8.76828
式	-8.76858
引	-8.77101
ついて	-8.77223
言葉	-8.77322
ログ	-8.77388
痛	-8.776
▁てか	-8.77607
役職	-8.77767
こういう	-8.78195
論	-8.78204
#	-8.78223
主	-8.78282
!!!!!!	-8.78289
黒	-8.78329
さんが	-8.78346
゚	-8.78664
できた	-8.78801
▁ひま	-8.79079
んですよね	-8.79114
そこ	-8.79125
機能	-8.79127
アイコン	-8.79184
ヌ	-8.79269
絵	-8.79402
▁今日	-8.79433
っちゃう	-8.79677
ラジオ	-8.79725
!(	-8.80089
bot	-8.80089
くいな	-8.80143
せる	-8.80172
本当に	-8.80222
▁最近	-8.80251
おかしい	-8.80262
っちゃ	-8.80313
しね	-8.80324
BOT	-8.80336
ってた	-8.80444
殺	-8.80596
えー	-8.80615
んや	-8.80827
見る	-8.80921
かぁ	-8.80938
an	-8.80942
多	-8.81051
▁ま	-8.81186
転	-8.81406
▁ほんと	-8.81472
られて	-8.81517
_	-8.81538
あまり	-8.81595
50	-8.81601
眠	-8.81726
昨日	-8.81861
▁明日	-8.81884
関係	-8.81954
▁ほ	-8.82224
おう	-8.82308
やすい	-8.82335
様	-8.82336
高校	-8.8245
やめろ	-8.82457
→	-8.82505
発言	-8.82591
▁ここ	-8.82746
飯	-8.82751
身	-8.82812
!!!!!!!!!!!!!!!!	-8.82919
のこと	-8.8301
ぽ	-8.83152
残	-8.83218
天使	-8.8324
雑フォ	-8.83246
ちょ	-8.83295
っぽい	-8.83319
さんの	-8.83431
やな	-8.83465
なに	-8.8352
でき	-8.83657
思い	-8.83686
法	-8.8371
っすね	-8.83813
がいい	-8.83819
かなり	-8.83852
▁そんな	-8.83953
なって	-8.84111
人の	-8.84229
たち	-8.84233
適当	-8.8434
撃	-8.84398
猫	-8.84402
▁NO	-8.84489
ぱ	-8.84654
定	-8.84831
そうな	-8.8496
普通	-8.84972
▁私も	-8.85129
言	-8.85521
起動	-8.85522
▁これは	-8.85533
ときは	-8.8554
居	-8.85551
天	-8.85637
どうぞ	-8.85673
▁多分	-8.85768
結局	-8.85789
血	-8.85845
電車	-8.85866
アカウント	-8.85868
▁僕は	-8.85891
▁>	-8.85922
・`)	-8.85951
運営	-8.85963
みた	-8.85972
マイクラ	-8.86013
私の	-8.86087
終わり	-8.86241
まる	-8.86339
しても	-8.8642
期	-8.86464
されてる	-8.8655
選	-8.86578
なかなか	-8.86703
ング	-8.86709
サン	-8.86711
ります	-8.86804
マジで	-8.86883
▁みんな	-8.87099
+	-8.87123
ディ	-8.87269
なり	-8.87371
ップ	-8.87413
、1	-8.87438
誰か	-8.87571
海	-8.87607
いった	-8.87618
野	-8.87637
たの	-8.87657
🤔	-8.87811
んか	-8.87963
食べる	-8.87977
雑談	-8.88305
アル	-8.88332
付け	-8.88474
るか	-8.88597
一人	-8.88599
覚え	-8.88732
になってる	-8.88824
荒らし	-8.88856
▁なに	-8.88912
があった	-8.89161
脳	-8.89452
入れる	-8.8947
'	-8.8962
ぴ	-8.89645
謎	-8.89771
ことは	-8.89948
赤	-8.89954
俺は	-8.90121
▁ア	-8.90142
▁今日は	-8.90158
まず	-8.90211
変え	-8.90233
いま	-8.90259
出して	-8.90288
大体	-8.90296
ヘ	-8.90309
▁くいな	-8.90481
J	-8.9049
出る	-8.90783
▁わかる	-8.90866
EXP	-8.90987
勢	-8.90991
愛	-8.90998
番	-8.91068
▁おお	-8.91091
かけ	-8.91097
受け	-8.91133
ゲー	-8.91156
ぽよ	-8.91164
時代	-8.91167
側	-8.9117
明	-8.91296
▁おは	-8.91414
持ち	-8.91426
アメリカ	-8.91684
おやすみ	-8.91706
作り	-8.91803
している	-8.92002
in	-8.92054
られ	-8.92068
すこ	-8.92191
かん	-8.92291
まして	-8.92296
▁とりあえず	-8.92314
割と	-8.92382
量	-8.92402
僕は	-8.9253
って言う	-8.92549
があって	-8.92632
市	-8.92769
書	-8.92772
ート	-8.92779
なくなった	-8.92796
ar	-8.92801
するの	-8.92839
▁M	-8.92924
それが	-8.92931
やんけ	-8.93029
づ	-8.93058
ライ	-8.93088
かなあ	-8.93249
言った	-8.93312
人に	-8.93366
場所	-8.9345
▁さんが	-8.93461
▁自分	-8.93572
▁C	-8.9359
▁おやすみなさい	-8.93651
くさ	-8.93682
昔	-8.93696
▁えー	-8.93851
初めて	-8.94048
派	-8.94117
みて	-8.94271
産	-8.94293
屋	-8.94349
なくなる	-8.94353
▁暇	-8.94395
▁「	-8.94446
やってた	-8.94531
▁そ	-8.94582
つけて	-8.94975
出来	-8.95123
切	-8.95141
され	-8.95246
思う	-8.95279
どっか	-8.95299
がんば	-8.95385
られない	-8.9545
なんだろう	-8.95502
私が	-8.95562
電話	-8.95598
休	-8.95686
11	-8.9569
殴	-8.95713
そうなんだ	-8.95799
オン	-8.95855
▁よろしくです	-8.95896
カード	-8.95918
ても	-8.95921
進	-8.95925
まった	-8.96015
と思った	-8.96043
そろそろ	-8.96092
▁こんにちは	-8.96218
or	-8.96427
....	-8.96502
ーム	-8.96564
▁まだ	-8.96647
が多い	-8.9672
ないよ	-8.96747
に行く	-8.9676
んじゃね	-8.96819
安い	-8.96834
今日は	-8.96839
▁すごい	-8.9702
るけど	-8.97031
してます	-8.97132
確かに	-8.97134
アニメ	-8.97153
マジ	-8.97179
腹	-8.97355
▁ん	-8.97429
幼女	-8.97462
サイト	-8.97582
起き	-8.97598
てか	-8.97644
家に	-8.97736
寝て	-8.97789
pc	-8.97852
授業	-8.9789
東京	-8.97956
いえ	-8.97963
なんだよ	-8.98045
ふーん	-8.98072
学生	-8.98196
どういう	-8.98215
木	-8.98247
理解	-8.98281
薬	-8.98426
今の	-8.98455
▁゙	-8.98604
ですかね	-8.98722
▁おっ	-8.98728
▁んー	-8.98795
駅	-8.98798
座	-8.98798
きれい	-8.98806
やぞ	-8.98886
>	-8.98934
服	-8.98974
毎日	-8.99011
しまう	-8.99034
知らん	-8.99064
サー	-8.99167
考えて	-8.99219
新しい	-8.99235
関	-8.99254
そうです	-8.99378
痛い	-8.99469
出す	-8.99582
はある	-8.99584
相手	-8.99712
ょ	-8.99756
ませ	-8.99843
くれる	-9.00101
なければ	-9.00114
普通の	-9.00164
なくても	-9.00235
今年	-9.00278
っこ	-9.00335
店	-9.00345
,	-9.00471
ソフト	-9.00471
言ってた	-9.00504
▁ひ	-9.00542
どれ	-9.00661
割	-9.0079
宣伝	-9.00847
画面	-9.00852
食べた	-9.00949
初	-9.01079
18	-9.01105
アン	-9.01193
起こ	-9.01262
入り	-9.01379
discord	-9.01413
へん	-9.01572
▁何か	-9.01586
ジャ	-9.01742
聞いた	-9.01749
しましょう	-9.01755
太	-9.01786
怖	-9.01841
嘘	-9.01912
島	-9.01982
ユーザー	-9.01984
るな	-9.02046
かけて	-9.02111
でいい	-9.02114
☆	-9.02172
雨	-9.02172
言語	-9.0221
かなぁ	-9.0224
聞き	-9.02248
最	-9.0227
買い	-9.02281
バグ	-9.02322
住	-9.02489
型	-9.02544
落ち	-9.02559
▁それで	-9.02598
忘れ	-9.02614
BAN	-9.02621
速	-9.02689
和	-9.02734
待って	-9.02737
行き	-9.02788
行きたい	-9.02802
変な	-9.02835
▁LV	-9.02917
おもしろい	-9.03077
器	-9.03124
しょ	-9.0315
持ってる	-9.03175
低	-9.03415
入ってる	-9.03452
右	-9.03516
14	-9.03679
我	-9.03709
焼き	-9.03749
っち	-9.03789
使える	-9.03898
垢	-9.03934
いいですね	-9.03978
えて	-9.0403
ほぼ	-9.04067
絵文字	-9.04121
重い	-9.04194
終わった	-9.04216
開	-9.04217
アプリ	-9.04228
▁だって	-9.04436
気持ち	-9.04443
ここに	-9.04445
こいつ	-9.04452
くそ	-9.04482
▁おかえり	-9.04486
ポケモン	-9.04487
DM	-9.04492
早	-9.04521
戻	-9.04525
そっち	-9.04567
ラーメン	-9.04691
コード	-9.04737
まじ	-9.0495
ことが	-9.04999
っぱ	-9.05007
フィ	-9.05207
さんは	-9.05263
生活	-9.053
教えて	-9.05408
刺	-9.05468
ナリ	-9.05581
どんな	-9.0569
くなった	-9.05851
るのは	-9.0586
ないので	-9.05932
at	-9.06011
川	-9.06055
とも	-9.06219
プロ	-9.06358
使ってる	-9.06406
写真	-9.06438
もんね	-9.06736
集	-9.06758
マー	-9.06815
▁うぇいうぇい	-9.06839
つい	-9.0684
業	-9.07011
ひと	-9.07033
とりあえず	-9.07125
首	-9.07257
カー	-9.07376
ok	-9.07408
かね	-9.07418
たまに	-9.07428
イメージ	-9.07458
なさそう	-9.07524
ころ	-9.07576
あるけど	-9.07635
風呂	-9.07683
▁ただ	-9.07722
????	-9.07746
しく	-9.07787
しよ	-9.07854
さっき	-9.07895
ける	-9.07907
ファイル	-9.08102
▁俺は	-9.08149
ラー	-9.08164
捨て	-9.08215
素	-9.0825
治	-9.0834
出た	-9.0839
そうなの	-9.08472
世	-9.08501
他	-9.08637
工	-9.08652
原	-9.08668
いう	-9.08735
予	-9.08823
唐突	-9.08875
昼	-9.08925
りゃ	-9.08938
▁おー	-9.0895
とかいう	-9.08953
▁O	-9.09055
まん	-9.0924
要	-9.09243
VC	-9.09367
いけ	-9.09396
▁EXP	-9.09503
について	-9.09577
ヨ	-9.09582
うちの	-9.09582
気に	-9.09731
ゴミ	-9.09784
苦	-9.09836
▁L	-9.09874
聞く	-9.10147
逆	-9.10248
するか	-9.10269
ぷ	-9.10282
▁俺も	-9.10309
うまい	-9.10384
かっこいい	-9.10386
夏	-9.10509
バレ	-9.10572
バン	-9.1058
ですけど	-9.10684
だぞ	-9.10755
土	-9.10997
わり	-9.1101
確か	-9.11032
好きな	-9.111
いける	-9.11361
連	-9.11384
リア	-9.11385
寒い	-9.11521
雪	-9.11568
ことある	-9.11588
俺の	-9.11634
ですが	-9.11657
▁スマホ	-9.11708
特	-9.11741
裏	-9.1177
頃	-9.1177
あそこ	-9.11782
れてる	-9.11886
員	-9.11962
テレビ	-9.1198
なお	-9.12134
ダメ	-9.12166
彼	-9.12174
消	-9.12191
んでしょう	-9.12239
耳	-9.12402
なんだっけ	-9.12466
ォ	-9.12517
サイ	-9.12526
県	-9.12609
全員	-9.12632
出てくる	-9.12954
この鯖	-9.13031
一緒に	-9.13058
チョコ	-9.13072
あんま	-9.13097
広	-9.13097
▁2	-9.13245
笑う	-9.13286
っちゃった	-9.13339
っていうのは	-9.13414
台	-9.13446
映画	-9.13465
長い	-9.13529
みたいに	-9.13625
習	-9.13637
光	-9.13669
対応	-9.13681
科	-9.13698
メール	-9.13829
帰り	-9.13832
読み	-9.13842
ロリ	-9.13864
レー	-9.13882
良	-9.13905
くなって	-9.1395
んですけどね	-9.14066
もし	-9.14089
歩	-9.14121
ところで	-9.14154
コッペパン	-9.1416
ハイ	-9.14322
てた	-9.14331
帰	-9.14373
そういうこと	-9.14498
ましたね	-9.145
有能	-9.14542
が一番	-9.14611
安	-9.14683
じゃないの	-9.14701
▁よし	-9.14749
他の	-9.14777
クラス	-9.14936
断	-9.14965
かかる	-9.15088
記憶	-9.15186
いろんな	-9.15186
on	-9.15187
もない	-9.15203
▁ふ	-9.1523
現	-9.15258
有	-9.15325
石	-9.15402
激	-9.15403
引き	-9.15599
持	-9.15644
なんとか	-9.15678
やっと	-9.15684
一回	-9.15688
キャラ	-9.15702
▁そうですね	-9.15756
勝手に	-9.15849
▁そうそう	-9.15896
やす	-9.15938
▁そうだね	-9.15986
言ってる	-9.16021
参加	-9.16033
書き	-9.16121
冷	-9.16125
▁W	-9.16204
質	-9.1625
▁やっぱり	-9.16332
起きて	-9.16335
キャ	-9.16343
やりたい	-9.16399
意	-9.16479
組	-9.16497
ひどい	-9.16499
')	-9.16501
ればいい	-9.16632
le	-9.16685
近	-9.16714
19	-9.16851
得	-9.16916
確認	-9.16939
いいの	-9.17029
プレイ	-9.17144
と思います	-9.17227
▁また	-9.17327
課題	-9.17382
いらない	-9.17386
特に	-9.17631
ッド	-9.17652
、2	-9.17742
キー	-9.17872
出来る	-9.17955
間に	-9.17982
ra	-9.18136
データ	-9.18141
品	-9.18237
?(	-9.18238
髪	-9.18261
遅い	-9.18309
たくない	-9.18503
りました	-9.18555
たけど	-9.18667
ごめん	-9.1868
やば	-9.18775
ガン	-9.18801
もらって	-9.18803
辛い	-9.19018
める	-9.19026
▁宜しくお願いします	-9.19173
GB	-9.19204
そこまで	-9.19237
ro	-9.19257
増	-9.19259
青	-9.19393
いくら	-9.19538
ファ	-9.19569
きっと	-9.19573
60	-9.19589
なるほど	-9.19615
左	-9.19626
キーボード	-9.19632
付	-9.19692
▁~~	-9.19743
▁ちなみに	-9.19768
今度	-9.19773
no	-9.19797
のほうが	-9.19843
命	-9.19845
じゃないですか	-9.19849
やめて	-9.19877
ダー	-9.19959
べき	-9.19999
にゃ	-9.20027
de	-9.2005
弾	-9.20071
あなた	-9.20076
滅	-9.20079
枚	-9.20081
▁3	-9.20097
ないし	-9.20126
いいか	-9.203
常	-9.20409
なんですか	-9.20433
???	-9.20443
爆	-9.20451
るのか	-9.20466
限	-9.20512
中に	-9.20515
花	-9.20532
差	-9.20741
▁うむ	-9.20764
散	-9.20767
▁__**	-9.20769
しないと	-9.2082
上げ	-9.20865
ないの	-9.20916
ッシュ	-9.20969
軽	-9.21022
ばん	-9.21026
1000	-9.21072
ミス	-9.21158
ッチ	-9.21164
茶	-9.21178
シュ	-9.21184
人で	-9.21225
▁そして	-9.21364
ほん	-9.21384
のよ	-9.21412
のお	-9.21448
今は	-9.21705
本当	-9.21801
状態	-9.21923
最高	-9.21934
もいい	-9.2205
しゅ	-9.22052
洗	-9.22155
当職	-9.22163
説明	-9.22188
話題	-9.222
少	-9.2224
決	-9.22367
00	-9.22424
ンゴ	-9.22477
切り	-9.22559
▁どう	-9.22619
だめだ	-9.22665
疲れ	-9.22667
▁マイクラ	-9.22687
あいつ	-9.22774
てない	-9.22775
死んだ	-9.22789
秒	-9.22852
すっごい	-9.22856
ション	-9.22901
前の	-9.22902
だわ	-9.23008
よねー	-9.231
!!!!	-9.23135
クロ	-9.23161
当	-9.23184
to	-9.23224
悲しい	-9.23261
件	-9.23331
乗	-9.23432
▁いい	-9.23659
追加	-9.23802
会社	-9.23826
送	-9.23883
走	-9.2396
させ	-9.23978
モン	-9.24104
例	-9.24272
▁めっちゃ	-9.24315
取	-9.24336
飲んで	-9.24348
やで	-9.24462
だが	-9.24468
頑張って	-9.24471
特定	-9.24527
替え	-9.24596
ワン	-9.24623
バイ	-9.24636
あるから	-9.24649
なんや	-9.24675
次のレベルまで	-9.24749
ダイ	-9.24829
ことない	-9.24876
勝	-9.2488
そのまま	-9.24925
全く	-9.24975
▁いま	-9.25065
日本人	-9.25111
カレー	-9.2516
もらった	-9.25212
is	-9.25222
だったの	-9.25366
生き	-9.25372
たくさん	-9.25381
▁やっぱ	-9.25395
話し	-9.2545
メッセージ	-9.25469
方法	-9.25533
▁あらあら	-9.25593
王	-9.2571
角	-9.2571
るぞ	-9.25724
いたら	-9.25733
離	-9.2574
そうですね	-9.25832
行こう	-9.25901
が好き	-9.25931
便利	-9.25956
ぶり	-9.25984
許	-9.26017
アップ	-9.2604
いいや	-9.2614
っか	-9.26176
ウン	-9.26232
せん	-9.26255
古	-9.26278
電	-9.26299
パー	-9.26361
理由	-9.26685
▁僕	-9.26705
リアル	-9.26707
これで	-9.26763
真	-9.26789
あれは	-9.26937
バス	-9.27009
16	-9.2712
横	-9.27166
▁お前	-9.27241
雑	-9.27354
丸	-9.27413
ひま	-9.27424
である	-9.27439
ううう	-9.27475
かしら	-9.27485
un	-9.27499
権限	-9.27665
休み	-9.27828
号	-9.27868
ていうか	-9.2788
PS	-9.27917
しそう	-9.27918
実際	-9.27924
あたり	-9.27933
と同じ	-9.2809
少ない	-9.28112
145	-9.28122
定期	-9.28318
皆	-9.28326
ほとんど	-9.28399
料理	-9.28415
40	-9.28519
oo	-9.28531
収	-9.28584
えーと	-9.28663
北	-9.28887
ございます	-9.28932
苦手	-9.28968
時は	-9.29037
th	-9.29047
かと	-9.29064
俺も	-9.29152
と思うけど	-9.29175
80	-9.29274
しー	-9.29277
可愛い	-9.2931
だれか	-9.29358
って何	-9.29386
してるの	-9.29399
反応	-9.294
退	-9.29424
のレベルが	-9.29484
個人	-9.29498
させて	-9.29513
んですかね	-9.29525
払	-9.29614
なった	-9.29619
はもう	-9.29691
してくれ	-9.29795
あんな	-9.29817
対	-9.29837
優	-9.29876
猥談	-9.29892
↑	-9.29897
メイン	-9.3003
ィ	-9.30048
ピン	-9.30103
達	-9.30146
コマンド	-9.30149
眠い	-9.30181
行ける	-9.30189
立て	-9.30345
参	-9.30394
大阪	-9.30412
お母さん	-9.30657
いじ	-9.30672
何を	-9.3077
っつ	-9.30907
訳	-9.30908
過ぎ	-9.3094
ゅ	-9.30998
付き	-9.31004
だからね	-9.31093
るんだ	-9.31102
視	-9.3112
ちゅ	-9.31123
▁僕も	-9.31158
自由	-9.31174
寒	-9.31211
投げ	-9.31315
プラ	-9.31331
試	-9.31353
字	-9.31597
ご飯	-9.31669
ma	-9.31699
とても	-9.31749
▁ただいま	-9.31751
ックス	-9.31763
上に	-9.31809
装	-9.31897
っていうの	-9.31929
鼻	-9.31931
予定	-9.31949
込み	-9.31958
したの	-9.32038
自分が	-9.32042
切れ	-9.32066
帰って	-9.32077
▁なん	-9.32136
あん	-9.32146
女の子	-9.3219
レン	-9.32329
配	-9.32337
▁ワイ	-9.32413
】	-9.32446
懐かしい	-9.32524
の中で	-9.32528
▁かわいい	-9.32571
トリ	-9.32648
とかも	-9.32698
うるさい	-9.32708
るよ	-9.32744
▁ぬ	-9.32786
たん	-9.32919
なう	-9.32935
13	-9.32953
作業	-9.32999
乗り	-9.33019
どうしよう	-9.33178
あげ	-9.33182
中国	-9.33196
違い	-9.33202
の中	-9.33247
通り	-9.33379
ュ	-9.33391
よい	-9.33412
敵	-9.33483
けん	-9.33508
嫌だ	-9.33573
表	-9.33699
捕	-9.33734
大きい	-9.33749
調べ	-9.33815
してて	-9.33824
東	-9.33994
頼	-9.3404
これから	-9.34111
どうした	-9.34134
だお	-9.34139
en	-9.34161
再	-9.34201
置	-9.34207
ため	-9.34216
難	-9.34257
トイレ	-9.34269
たから	-9.34357
見え	-9.34384
殺す	-9.34415
んだから	-9.34425
お腹	-9.34433
わー	-9.34486
ってない	-9.34503
ここで	-9.34682
ために	-9.34727
終わって	-9.34882
ウイルス	-9.3506
つもり	-9.35096
そういえば	-9.35139
思った	-9.35164
と思ったら	-9.35166
まー	-9.35194
がいる	-9.35238
思い出	-9.35306
ーーー	-9.35319
地震	-9.35334
無料	-9.35364
ホモ	-9.35403
ワー	-9.3548
にくい	-9.35507
んだろ	-9.35542
迷	-9.35589
ˇ	-9.35591
小さい	-9.35616
通話	-9.35631
ガチ	-9.35696
フェ	-9.35809
数学	-9.35893
とかって	-9.35898
になります	-9.35917
クリ	-9.36011
暴	-9.36011
を見	-9.3606
プログラミング	-9.36125
開示	-9.36129
変わる	-9.36146
見たら	-9.36178
次の	-9.36209
は草	-9.36254
描	-9.36342
平	-9.36381
紙	-9.36388
渡	-9.36393
取って	-9.36398
制限	-9.36406
そして	-9.36416
ドン	-9.36507
俺が	-9.36519
▁へー	-9.36595
ブル	-9.36637
職	-9.36644
it	-9.36648
ーズ	-9.36866
制	-9.36881
って言ってた	-9.3692
やだ	-9.36956
人生	-9.37093
なきゃいけない	-9.37134
社	-9.37135
焼	-9.37166
LINE	-9.37202
んですが	-9.3722
どの	-9.37308
よな	-9.37375
可能性	-9.37492
入れた	-9.37496
向こう	-9.37528
いいね	-9.37563
押し	-9.37577
ヨッシー	-9.37741
受験	-9.37744
倍	-9.37745
試験	-9.37745
飛行機	-9.37745
無能	-9.37782
▁**__	-9.37978
根	-9.38017
布団	-9.3802
んだが	-9.38034
ステ	-9.38092
なかったら	-9.38147
ck	-9.38206
全て	-9.38225
インストール	-9.3829
など	-9.38296
誤字	-9.38296
クラ	-9.38375
だー	-9.38424
子ども	-9.38471
一瞬	-9.38524
になりました	-9.3854
脱	-9.38563
Windows	-9.38564
四	-9.38564
星	-9.38564
移動	-9.38583
あれば	-9.38663
st	-9.38681
わかった	-9.38683
値	-9.38685
しかし	-9.38749
▁寝	-9.38784
簡単	-9.38854
おっ	-9.38923
止め	-9.3897
飲み	-9.39009
記	-9.39052
銃	-9.39115
積	-9.39115
しようかな	-9.39148
あの人	-9.39157
レモン	-9.39211
セーフ	-9.39286
それも	-9.39313
いいけど	-9.39315
Z	-9.39391
じょ	-9.39421
ということ	-9.39479
通知	-9.39489
ショ	-9.39559
入る	-9.39563
読んで	-9.39586
相	-9.39673
どうやって	-9.39726
打	-9.39791
▁なんだ	-9.39797
ものを	-9.39905
率	-9.39936
公式	-9.39958
のとき	-9.39969
開発	-9.39979
えっ	-9.40001
でもいい	-9.40037
▁ゲーム	-9.40154
出した	-9.40155
まい	-9.40162
利	-9.40166
元気	-9.40175
犬	-9.40224
宿題	-9.40225
言えば	-9.40278
うちに	-9.4035
周り	-9.40361
に行って	-9.40376
してくる	-9.40388
って思って	-9.40405
綺麗	-9.40504
遠	-9.40554
信	-9.40557
▁どこ	-9.40628
の名前	-9.40813
いいじゃん	-9.4106
表示	-9.41067
25	-9.41112
こそ	-9.41116
カン	-9.41239
壊	-9.41268
そー	-9.41327
あげる	-9.41479
つける	-9.41488
▁おはよー	-9.41526
運	-9.41584
もちろん	-9.41628
me	-9.4186
すか	-9.41875
リング	-9.41898
オンライン	-9.41924
暑い	-9.41957
聞か	-9.4197
さえ	-9.42041
聴	-9.42061
テン	-9.42064
まま	-9.42086
プレ	-9.42087
みる	-9.42121
みたいなの	-9.42161
るわ	-9.42266
▁まじ	-9.42393
ノート	-9.42461
実は	-9.42517
人いる	-9.42549
おかし	-9.4259
忘れた	-9.42676
そうだね	-9.42719
満	-9.42745
つき	-9.42763
名古屋	-9.42767
存在	-9.42769
エン	-9.42798
グラ	-9.42873
カル	-9.42981
ふり	-9.43013
共	-9.43042
んでしょ	-9.43075
たま	-9.43117
にいる	-9.43176
al	-9.43282
ちゃって	-9.43306
冬	-9.43331
微妙	-9.43341
久しぶりに	-9.4335
帰れ	-9.43396
とかは	-9.43438
▁俺の	-9.43486
なくなって	-9.43601
スタ	-9.43605
コーヒー	-9.43629
隠	-9.43629
iPhone	-9.43629
ってきた	-9.43704
▁日本	-9.43837
▁おい	-9.4387
近い	-9.4389
研究	-9.43918
熊谷	-9.43918
誰も	-9.4396
覚	-9.43974
による	-9.44029
にした	-9.44048
ry	-9.44088
そもそも	-9.44109
ダイスケ	-9.4414
起きる	-9.44177
反	-9.44182
▁誰か	-9.44215
今まで	-9.44267
寝ます	-9.44285
触	-9.44304
▁違う	-9.44371
一緒	-9.44433
想	-9.44452
かどうか	-9.44454
ハン	-9.44457
逆に	-9.44492
つつ	-9.44504
片	-9.44519
好	-9.44527
メン	-9.44548
まずい	-9.44577
凄い	-9.44604
行か	-9.44635
基本	-9.44687
なこと	-9.44689
カラ	-9.44711
♪	-9.4479
▁昨日	-9.44839
OS	-9.4493
^^	-9.44975
▁一応	-9.44987
急に	-9.45016
飲	-9.45034
骨	-9.45082
女子	-9.45103
そうだよね	-9.4534
端	-9.45369
防	-9.45375
約	-9.45375
聞こえ	-9.45376
場合は	-9.45388
ブロック	-9.45423
辛	-9.45578
良かった	-9.4558
ナー	-9.45626
▁そういう	-9.45641
観	-9.45659
ha	-9.45661
▁確かに	-9.45675
社会	-9.45705
急	-9.45736
ェ	-9.45757
▁学校	-9.45764
込んで	-9.45794
ですー	-9.45796
▁さて	-9.45828
校	-9.45858
十	-9.45894
シー	-9.45942
しっかり	-9.45966
ピー	-9.46011
コー	-9.46071
▁まじか	-9.46086
今から	-9.46088
わし	-9.46135
上の	-9.46136
保	-9.46253
改	-9.46256
袋	-9.4626
生きて	-9.46264
逃げ	-9.46264
折	-9.46305
週間	-9.46361
なのかな	-9.46395
んだっけ	-9.46486
ことに	-9.46493
行け	-9.46498
<	-9.46505
遊	-9.46507
魚	-9.46548
犯	-9.4655
守	-9.46557
無駄	-9.46563
なんです	-9.46592
▁エ	-9.46631
母	-9.46636
▁大	-9.46656
かす	-9.46707
フル	-9.46802
細	-9.46834
こわい	-9.46849
毛	-9.46855
してください	-9.46861
おめでとうございます	-9.46861
ごめんなさい	-9.46938
好きです	-9.46964
よろしくお願いします	-9.46978
関係ない	-9.47013
探	-9.47058
しません	-9.47084
放	-9.471
レス	-9.47127
取れ	-9.47146
等	-9.47154
なにか	-9.47167
ありません	-9.47223
よろしく	-9.47228
いら	-9.47325
あるの	-9.47394
せて	-9.47423
動か	-9.47452
すみません	-9.47475
最強	-9.4748
▁私の	-9.47519
思って	-9.47522
ビー	-9.47596
OK	-9.47702
美	-9.47723
お願いします	-9.47756
しかも	-9.47809
たり	-9.47857
終わる	-9.47875
キレ	-9.47907
マイ	-9.47916
さい	-9.47919
っとる	-9.47948
けて	-9.47957
しま	-9.47957
過	-9.47971
%	-9.48022
スイッチ	-9.48054
ルーカス	-9.48104
そんなこと	-9.48122
ますか	-9.4815
辺	-9.48192
きつい	-9.48201
使った	-9.48295
のでは	-9.48323
失	-9.48351
思	-9.48354
環境	-9.48356
検索	-9.48357
んじゃないの	-9.48462
してるから	-9.48624
乱	-9.48654
南	-9.48659
おすすめ	-9.4866
言わない	-9.4871
▁おはよ	-9.48724
飛ば	-9.48748
いてる	-9.48766
ダインさん	-9.48849
wwww	-9.48905
ぺ	-9.48906
日に	-9.48921
まり	-9.49032
24	-9.49097
一つ	-9.49107
キング	-9.4911
抜け	-9.49111
ぼく	-9.49168
打ち	-9.49213
じゃないか	-9.49228
この人	-9.4924
変換	-9.49277
どうせ	-9.49311
去年	-9.49331
ch	-9.4946
こん	-9.49532
▁オ	-9.49536
罪	-9.49566
結果	-9.4958
便乗	-9.4958
死んで	-9.49632
かない	-9.49638
▁大丈夫	-9.4968
▁うんうん	-9.49762
▁マ	-9.49774
思い出した	-9.49851
結	-9.49865
過疎	-9.49882
使え	-9.49919
級	-9.50057
先輩	-9.5019
はじめ	-9.50208
はちわれさん	-9.50365
ばっかり	-9.50367
来ない	-9.50412
開け	-9.50428
週	-9.50442
届	-9.50497
沖縄	-9.50497
海外	-9.50559
タイ	-9.50602
近く	-9.50717
務	-9.50786
言われて	-9.50807
何が	-9.50812
だもん	-9.5095
ってくる	-9.50981
修	-9.51079
スペック	-9.5113
ちがう	-9.51167
ふう	-9.5119
リンク	-9.51198
るやつ	-9.51199
消し	-9.51235
1.	-9.51245
▁やばい	-9.51281
まーす	-9.51353
ジャン	-9.51394
せない	-9.51477
話す	-9.51518
!」	-9.51569
書く	-9.51598
la	-9.51598
人と	-9.51637
いたい	-9.51659
フォ	-9.51696
そうそう	-9.51713
役	-9.51715
助	-9.51729
向	-9.51729
吸	-9.51738
結婚	-9.51743
令和	-9.51746
▁うどん	-9.51815
▁いやー	-9.5196
加	-9.52029
まじで	-9.52041
図	-9.52054
させる	-9.52139
わかん	-9.52239
ザー	-9.52331
でもない	-9.52355
らしいです	-9.52419
流れ	-9.52458
中学	-9.52469
睡眠	-9.52687
▁いいね	-9.52699
ジュ	-9.52728
とう	-9.52747
あい	-9.52821
んでる	-9.52943
出し	-9.52953
そうだな	-9.52999
FooServer	-9.53001
によって	-9.53026
解決	-9.5303
って言われて	-9.53134
シン	-9.53173
入った	-9.53204
突	-9.53303
Twitter	-9.53318
慣れ	-9.53333
面倒	-9.53334
▁一	-9.53402
だったから	-9.53462
話を	-9.53469
ライン	-9.5359
合い	-9.53601
計	-9.53623
芋	-9.53636
北海道	-9.53637
極	-9.53637
家族	-9.53655
わけじゃない	-9.53858
すいません	-9.53879
格	-9.53883
魔	-9.53915
例えば	-9.53956
カラオケ	-9.53957
息	-9.53957
興味	-9.53963
大好き	-9.54135
アー	-9.5417
一度	-9.54295
まえ	-9.54306
▁駄目です	-9.54341
どん	-9.5436
目が	-9.54361
ッと	-9.54487
気分	-9.54498
移	-9.54577
▁ほう	-9.54696
とかで	-9.54732
▁S	-9.548
ph	-9.54878
▁#	-9.549
アウト	-9.54923
もしかして	-9.54947
タイプ	-9.54956
爆発	-9.55022
▁そもそも	-9.55031
弱	-9.55152
程	-9.55213
出ない	-9.55215
絶	-9.5523
ほう	-9.55242
テトリス	-9.55245
種	-9.55536
彼女	-9.55595
じゃなかった	-9.55631
メモリ	-9.55679
▁というか	-9.55742
放置	-9.55905
変態	-9.55905
言われた	-9.5602
マック	-9.56068
めんど	-9.56168
▁ハ	-9.56182
ること	-9.56216
最悪	-9.56258
安心	-9.56259
ドラ	-9.56279
生まれ	-9.56287
ハト	-9.5634
見てる	-9.56453
フレ	-9.56481
誕生日	-9.5655
ご利用ありがとうございま	-9.5655
サーバーから抜けました	-9.5655
鳴	-9.5655
遊び	-9.56596
参加しました	-9.56597
旅行	-9.56615
▁こん	-9.5666
ta	-9.56705
深	-9.56803
落	-9.56816
買おう	-9.56887
▁A	-9.56889
ランド	-9.56898
運動	-9.569
身長	-9.56946
始めた	-9.56984
co	-9.57054
友人	-9.57064
アイ	-9.57072
ども	-9.571
第	-9.57161
復活	-9.57212
になりそう	-9.57265
すと	-9.57357
病	-9.57361
▁結構	-9.5741
できて	-9.5746
食べたい	-9.5746
▁アイコン	-9.57461
そこに	-9.57497
独	-9.5754
@	-9.5754
緑	-9.5754
ガー	-9.57556
▁ふり	-9.57685
すら	-9.577
するぞ	-9.57713
してくれる	-9.57905
やれ	-9.57934
使わ	-9.58077
ブリ	-9.5813
そしたら	-9.58168
ずに	-9.58171
オー	-9.5821
変わって	-9.58318
▁じゃ	-9.58416
撮	-9.58443
りんご	-9.58482
だなぁ	-9.58495
程度	-9.58534
充電	-9.58543
うんち	-9.5855
ジョ	-9.58555
したり	-9.58591
えた	-9.58612
よりも	-9.58615
しゃべ	-9.58648
変えた	-9.5878
よし	-9.58788
経	-9.58844
異	-9.58865
帰宅	-9.58878
っきり	-9.58886
分からない	-9.58964
適	-9.5906
行かない	-9.59139
圧	-9.59212
お父さん	-9.59214
練習	-9.59217
見えない	-9.59248
韓国	-9.59273
もらう	-9.5936
にある	-9.59379
日本の	-9.59407
ちょうど	-9.59437
に戻	-9.59457
やったら	-9.59469
わい	-9.59486
うぇいうぇいうぇいうぇいうぇい	-9.59534
波	-9.59538
いいよね	-9.5954
弁	-9.5954
館	-9.5955
めんどくさい	-9.59553
起きた	-9.59594
マスク	-9.59605
一日	-9.59738
▁前	-9.59757
▁あぁ	-9.59813
ついた	-9.59823
やらない	-9.5983
害	-9.5988
交	-9.59885
御	-9.59889
続	-9.59891
に行った	-9.59955
ですねー	-9.59961
一部	-9.59971
って言った	-9.59975
マシ	-9.60056
料	-9.60137
んだよなぁ	-9.60138
▁わろた	-9.60241
使えない	-9.60247
仕方ないね	-9.60261
止ま	-9.60279
なんでも	-9.60302
くれた	-9.60332
答え	-9.60391
人たち	-9.60403
末	-9.60481
とか思って	-9.60498
楽しみ	-9.60555
•	-9.6057
歯	-9.6057
▁🎉🤗	-9.60571
▁たし蟹	-9.60584
一般	-9.60585
精神	-9.60586
倒	-9.60672
ョ	-9.60694
回線	-9.60739
帰る	-9.60744
出来ない	-9.60749
おはようございます	-9.60768
はね	-9.60789
箱	-9.60913
毒	-9.60913
稼	-9.60913
つま	-9.60959
適当に	-9.61004
スター	-9.61068
言わ	-9.6109
ロン	-9.61109
?」	-9.61114
つけた	-9.61131
やし	-9.61191
ただの	-9.61208
その人	-9.61223
吐	-9.6123
卒業	-9.61246
五	-9.61257
こちら	-9.6126
内容	-9.61277
に入って	-9.61334
ふりかす	-9.61342
人も	-9.6135
ませんか	-9.61361
はちわれ	-9.61405
てきた	-9.61436
▁わい	-9.61489
仕方ない	-9.61508
遊んで	-9.6152
ユ	-9.61535
室	-9.61585
略	-9.61601
別の	-9.61713
ニルク	-9.61767
そんなん	-9.61778
かける	-9.61807
ものが	-9.61869
言われ	-9.619
笑った	-9.61937
病院	-9.61954
てください	-9.61976
飲む	-9.62025
そりゃ	-9.62031
ジェ	-9.62049
▁雑フォ	-9.62113
並	-9.62136
暗	-9.62174
あるよ	-9.62204
のところ	-9.62224
lo	-9.62228
公	-9.62263
ごと	-9.6227
完全に	-9.62282
されない	-9.62327
合う	-9.6235
自動	-9.62384
せや	-9.62386
ないか	-9.62442
食う	-9.62449
おお	-9.62475
。*	-9.62475
▁こんばんはー	-9.62501
最初	-9.62504
ねる	-9.62581
▁どうも	-9.62595
きたい	-9.62634
スパム	-9.62644
流石に	-9.62645
ついでに	-9.62661
こうやって	-9.62663
受	-9.62724
ゼ	-9.62746
500	-9.62778
ic	-9.62798
見える	-9.62844
みたいな感じ	-9.62849
アホ	-9.62851
だぁ	-9.62925
短	-9.62987
隣	-9.62992
腕	-9.62992
Android	-9.62993
黙	-9.62993
年齢	-9.63001
いいんじゃない	-9.63001
操作	-9.63005
言ったら	-9.63068
やってない	-9.63122
▁こんな	-9.63123
..	-9.63135
大事	-9.6317
物理	-9.63216
万円	-9.63221
われ	-9.63265
動く	-9.63282
▁よく	-9.63315
\	-9.63344
塾	-9.63344
破壊	-9.63351
チャット	-9.63439
23	-9.63442
さすがに	-9.63469
▁【	-9.63503
そうですか	-9.63504
ri	-9.63521
書いた	-9.63549
来年	-9.63581
の人が	-9.63585
️	-9.63696
恋	-9.63696
百	-9.63696
鳥	-9.63696
クッソ	-9.63696
迷惑	-9.63699
変わった	-9.63699
登録	-9.63699
でしょうか	-9.63718
増えて	-9.63742
どこに	-9.63743
はどう	-9.63749
▁そうそうそう	-9.63749
話して	-9.6377
出てきた	-9.63819
できます	-9.63823
低い	-9.63857
って言われた	-9.63863
すること	-9.63883
押	-9.63913
遅	-9.63999
っていうのが	-9.64022
卵	-9.64049
演	-9.64049
ゲーセン	-9.64061
▁朝	-9.64074
ed	-9.64074
、3	-9.64113
▁自分の	-9.64281
を見て	-9.64373
ヴ	-9.64385
▁普通に	-9.64396
買え	-9.64439
この前	-9.64619
et	-9.64631
▁東京	-9.64647
閉	-9.6471
▁先生	-9.64726
趣味	-9.64763
▁幼女	-9.6478
るので	-9.64813
先に	-9.64879
そこで	-9.64881
あったら	-9.64913
最後	-9.6497
▁no	-9.64975
どうして	-9.6501
気になる	-9.65032
めちゃくちゃ	-9.65117
食い	-9.65135
しょうがない	-9.65164
部活	-9.65215
ロリコン	-9.65244
たんだけど	-9.65277
流行	-9.65314
うまく	-9.65341
んよ	-9.6539
置いて	-9.6541
ゃ	-9.65457
玉	-9.65474
システム	-9.65475
揚げ	-9.65479
us	-9.65548
かれ	-9.65565
まくって	-9.65605
▁そしたら	-9.65614
300	-9.6564
報	-9.65781
具	-9.65802
ポン	-9.65813
問	-9.65817
スクショ	-9.65835
フレンド	-9.65835
風邪	-9.65839
▁そうなんだ	-9.65876
▁うんこ	-9.65949
りする	-9.65961
だいたい	-9.66136
ほうがいい	-9.66148
町	-9.66196
粉	-9.66218
ダイン	-9.66259
半分	-9.66292
場合	-9.66322
しています	-9.66353
鯖主	-9.66374
ありそう	-9.66471
負け	-9.66518
いいですか	-9.66521
叩	-9.66558
油	-9.66558
降	-9.66668
どー	-9.66672
下手	-9.66674
おめ	-9.66767
減	-9.66788
困	-9.66844
非	-9.66921
ちん	-9.66994
チン	-9.66999
してきた	-9.67
うっ	-9.67006
現実	-9.67009
としたら	-9.67017
言えない	-9.67047
くなってきた	-9.67097
どうも	-9.67179
▁F	-9.6722
列	-9.67287
非常に	-9.67287
決め	-9.67302
読む	-9.67354
作れ	-9.67406
▁いいですね	-9.6744
ついてる	-9.67452
ay	-9.67637
いか	-9.67637
森	-9.67643
米	-9.67653
パプリカ	-9.67653
マウス	-9.67655
なんとなく	-9.6768
なんかね	-9.67685
うちは	-9.67693
みたら	-9.67759
・。・	-9.67781
でもね	-9.67813
待	-9.67927
似	-9.67969
17	-9.68014
誘	-9.68021
役職パネル	-9.68024
伸び	-9.68029
ボタン	-9.6805
コロナ	-9.68055
だいぶ	-9.68083
▁かなしい	-9.68084
っている	-9.68118
部分	-9.68208
▁それな	-9.68243
アイス	-9.68277
▁ダイスケ	-9.68369
権	-9.68379
推	-9.68389
↓	-9.6839
♡	-9.6839
嬉しい	-9.68396
ファン	-9.6846
200	-9.68568
が悪い	-9.68664
固	-9.68746
村	-9.6876
コンビニ	-9.6876
兄貴	-9.68762
削除	-9.68764
模様	-9.68767
どんどん	-9.68781
たか	-9.68784
わん	-9.68806
えない	-9.68855
の中に	-9.68867
がい	-9.68875
リン	-9.6888
してたら	-9.68904
ちょい	-9.68928
分け	-9.68964
出てる	-9.69082
破	-9.69106
背	-9.69128
セット	-9.6913
席	-9.69132
読	-9.69147
おく	-9.69209
父	-9.6929
ありました	-9.69347
あとは	-9.69404
...()	-9.69424
春	-9.69496
ケーキ	-9.69507
教育	-9.69514
質問	-9.69516
ルト	-9.69525
しょう	-9.69568
sk	-9.69616
チャー	-9.69638
ちなみに	-9.69645
もらえ	-9.69645
あるのか	-9.69661
の問題	-9.69704
ありがとう	-9.69724
どうする	-9.69738
パス	-9.69784
当て	-9.69842
込む	-9.69846
こい	-9.69847
酸	-9.69877
地獄	-9.69885
ヶ月	-9.69889
ソース	-9.69994
なんでしょう	-9.70082
▁天使	-9.70083
食って	-9.70112
作れる	-9.70153
てて	-9.70185
士	-9.70237
携帯	-9.70257
失礼	-9.70258
使用	-9.70285
さんに	-9.70332
かよ	-9.70337
やね	-9.70374
上がる	-9.70424
^～	-9.7049
nn	-9.7051
後ろ	-9.70531
▁あいつ	-9.70608
招待	-9.70634
サブ垢	-9.70642
子供	-9.70646
▁ねこ	-9.70676
落ちて	-9.70739
送り	-9.70751
乗って	-9.7094
Q	-9.70979
そうだった	-9.71041
皆さん	-9.71124
ss	-9.71155
喋	-9.71237
告	-9.71355
潰	-9.71386
棒	-9.71392
ニキ	-9.71472
ウェ	-9.71505
使わない	-9.7152
▁名前	-9.71598
何回	-9.71622
なんの	-9.71657
おね	-9.7167
まし	-9.71688
q	-9.71774
田舎	-9.71776
失敗	-9.71778
過去	-9.71778
放送	-9.71801
いいと思う	-9.71838
いました	-9.71844
かなんか	-9.71859
プリ	-9.71929
わかり	-9.71932
ce	-9.71943
▁4	-9.72058
あんた	-9.72069
落ちる	-9.72087
エロ	-9.72115
しらん	-9.7214
°	-9.72157
;`)	-9.72168
教え	-9.72201
▁これで	-9.72205
!!!!!	-9.72207
僕の	-9.72223
分かる	-9.72256
そんなの	-9.72326
めんどい	-9.7233
すご	-9.72348
寄	-9.72476
にしよう	-9.72513
載	-9.72696
もうちょっと	-9.72743
▁親	-9.7279
ボー	-9.72816
食え	-9.72829
おやすみなさい	-9.72873
軍	-9.72928
技術	-9.72932
公開	-9.72941
無視	-9.72991
が違う	-9.73001
!!!!!!!!!!!!!!	-9.73098
に出	-9.73151
!!!!!!!!!!	-9.73169
なんですけど	-9.73172
▁新	-9.73266
今日も	-9.73276
設	-9.73301
検	-9.73308
系の	-9.7331
測	-9.73315
再起動	-9.73336
かけた	-9.73341
▁たしかに	-9.73385
▁結局	-9.73462
になったら	-9.73521
しながら	-9.73616
たかった	-9.73624
フランス	-9.73672
働	-9.737
売	-9.73727
本人	-9.73741
は何	-9.73751
わかって	-9.73797
レイ	-9.73806
おはよう	-9.73839
送って	-9.73883
なってる	-9.73926
楽し	-9.73939
フリ	-9.7398
▁英語	-9.73994
いき	-9.74009
とる	-9.74021
▁よろ	-9.74069
▁まず	-9.74082
てん	-9.74086
街	-9.74094
喧嘩	-9.74095
とにかく	-9.74103
飛	-9.74131
これが	-9.74166
へー	-9.74204
真っ	-9.74286
りたい	-9.74302
▁ううん	-9.74386
後に	-9.74434
団	-9.74472
弟	-9.74483
虫	-9.74487
準備	-9.74488
邪魔	-9.74489
心配	-9.74524
▁せやな	-9.74554
トラ	-9.74574
自体	-9.74624
ノー	-9.74657
じゃないと	-9.74827
危険	-9.74881
の先生	-9.74887
いきなり	-9.74899
セン	-9.74906
ほかの	-9.74944
感覚	-9.74946
イカ	-9.75003
っく	-9.75091
飲んだ	-9.75103
スプラ	-9.75263
射	-9.75268
[	-9.75276
板	-9.75278
やめた	-9.75293
こんな感じ	-9.75296
`	-9.75333
面白	-9.75338
ゆる	-9.75378
▁うぇいうぇいうぇいうぇい	-9.7539
さない	-9.75461
←	-9.75462
ありがとうございます	-9.75472
誰だ	-9.75537
両	-9.75575
割れ	-9.75659
びっくり	-9.75669
即	-9.75672
戸	-9.75673
困惑	-9.75675
時点で	-9.75675
Bot	-9.75704
えっと	-9.75733
瞬間	-9.75775
▁たぶん	-9.75806
かわ	-9.75847
疲れた	-9.75886
ッパ	-9.75898
ってやつ	-9.75918
正直	-9.75959
時期	-9.75975
ようになった	-9.75992
ないで	-9.76001
ho	-9.76004
未	-9.76043
遠い	-9.76048
ないように	-9.76053
製	-9.76061
ている	-9.76066
鉄	-9.76071
羽	-9.76071
僕も	-9.76072
たく	-9.7608
と言う	-9.76143
わから	-9.76195
済	-9.76196
似てる	-9.76245
になり	-9.76359
暑	-9.76407
除	-9.76446
ほうが	-9.76457
覚えて	-9.76578
▁別に	-9.76579
・・・・	-9.76614
親が	-9.76616
遅れ	-9.76621
知ら	-9.7664
つぶ	-9.76646
しちゃった	-9.76647
su	-9.76655
▁つまり	-9.76778
クレ	-9.76821
義	-9.76825
塩	-9.76872
(◞‸◟)	-9.76873
終了	-9.76874
対策	-9.76875
更新	-9.76879
ならない	-9.76955
作ろう	-9.76982
られてる	-9.77088
▁そうか	-9.77128
先生が	-9.77176
ばっか	-9.77211
管理	-9.77243
戦争	-9.77287
か月	-9.77315
消えて	-9.77361
泣	-9.77455
掛け	-9.77457
おつ	-9.7748
マイク	-9.77508
ボール	-9.77536
ルール	-9.77551
ブラ	-9.7757
覚えてない	-9.77575
何とか	-9.77583
んじゃないかな	-9.77628
果	-9.77669
盗	-9.77681
いつか	-9.77689
mo	-9.7772
よぉ	-9.77748
かわいそう	-9.77763
▁ぬわ	-9.77783
煽	-9.77809
ad	-9.77863
があるから	-9.78015
容	-9.7805
望	-9.7808
区	-9.78087
自転車	-9.78088
モード	-9.78091
んど	-9.78102
▁やったぜ	-9.78103
▁ネット	-9.78129
わどさん	-9.7823
ってのは	-9.78236
分かり	-9.78242
▁もふもふ	-9.78282
けば	-9.78315
けれど	-9.78325
時間が	-9.78331
すまん	-9.78335
狂	-9.78337
ゥ	-9.78419
家の	-9.7843
まない	-9.78469
警察	-9.78498
フォーラム	-9.78502
かえ	-9.78525
おん	-9.78559
再生	-9.78561
ツイ	-9.78603
てくる	-9.78606
ですし	-9.78646
有名	-9.78684
こういうの	-9.78702
取る	-9.7881
フラ	-9.78827
追い	-9.78837
費	-9.78894
千	-9.789
香	-9.78905
補	-9.78905
イベント	-9.78905
プリン	-9.78935
あかん	-9.78999
▁レ	-9.79037
おけ	-9.79083
クル	-9.79083
時の	-9.79106
調	-9.79124
向け	-9.79125
わよ	-9.79191
切って	-9.79224
混	-9.79247
雷	-9.79317
経験	-9.79317
最終	-9.79326
パク	-9.79378
いけない	-9.7939
困る	-9.79403
調子	-9.79411
詰め	-9.79475
ペン	-9.79477
があります	-9.79525
つらい	-9.79533
ありますね	-9.79648
フォー	-9.79697
do	-9.79698
タイム	-9.79788
編集	-9.79804
ウォ	-9.79826
配信	-9.79859
合わせ	-9.79889
わる	-9.79921
張	-9.79927
訴	-9.79937
▁おれ	-9.79953
やる気	-9.79955
と思うよ	-9.79974
さま	-9.80029
んかな	-9.80035
そんな感じ	-9.80086
院	-9.80119
怪	-9.80125
麺	-9.80145
初め	-9.80151
売って	-9.80261
能	-9.80381
自作	-9.80405
消す	-9.80411
かかって	-9.8045
ライト	-9.80453
▁T	-9.80485
▁うちの	-9.80499
▁そろそろ	-9.80515
接	-9.80531
▁5	-9.80555
自然	-9.80579
って言ったら	-9.80637
ってさ	-9.8067
かわい	-9.80691
腐	-9.80716
のために	-9.80736
▁それが	-9.80742
類	-9.80746
かと思った	-9.80812
ナン	-9.80841
いいかな	-9.80977
輪	-9.8098
攻撃	-9.8099
そば	-9.80996
発表	-9.81017
寝てる	-9.81104
越	-9.81204
22	-9.81225
にしろ	-9.81243
頑張	-9.81245
ーーーーー	-9.81262
路	-9.81379
葉	-9.8138
ゆう	-9.81385
さんも	-9.81389
久	-9.814
お久しぶりです	-9.81408
すべて	-9.81414
センター	-9.81429
ある程度	-9.8145
帰ってきた	-9.81496
IP	-9.81553
からなぁ	-9.81649
若い	-9.817
ませんでした	-9.81725
帯	-9.81744
みよう	-9.81771
かあ	-9.8178
つよい	-9.81802
統	-9.81822
安定	-9.81824
保存	-9.81828
残念	-9.81829
飛び	-9.81867
よくない	-9.81918
▁今は	-9.81944
グル	-9.81946
▁10	-9.81946
ぶっ	-9.81986
ものは	-9.82089
穴	-9.82246
注意	-9.82252
いいなー	-9.82444
手に	-9.82464
ごろ	-9.82485
ッタ	-9.82503
するから	-9.82518
2000	-9.82533
までは	-9.82562
っちゃって	-9.82567
でね	-9.82573
処	-9.82641
いいぞ	-9.82665
備	-9.82668
ダウンロード	-9.82674
漢字	-9.82678
づらい	-9.82688
わら	-9.82723
が出る	-9.82783
なぜか	-9.82825
でかい	-9.82873
むしろ	-9.82893
ったり	-9.82955
▁頭	-9.83013
情	-9.83018
フリー	-9.83023
▁もっと	-9.8304
スケ	-9.83074
やること	-9.83093
糞	-9.83099
呼び	-9.83126
▁いいよ	-9.83205
▁しかも	-9.83257
かく	-9.83302
70	-9.83303
がね	-9.83323
▁←	-9.83326
人を	-9.83432
寝ろ	-9.83462
be	-9.83491
技	-9.83523
悩	-9.83528
癖	-9.83528
ペヤング	-9.83528
と思い	-9.83565
すればいい	-9.83592
ka	-9.83677
答	-9.83753
振り	-9.83762
さんと	-9.83833
▁うそ	-9.83884
mod	-9.83919
▁へえー	-9.83932
志	-9.83959
AN	-9.84045
▁運営	-9.84089
スカ	-9.84105
わど	-9.84106
ところに	-9.84125
なんですよ	-9.84147
作ってる	-9.84152
周	-9.84179
ハッ	-9.84261
os	-9.84286
危ない	-9.84287
おれ	-9.84318
変えて	-9.84359
甘	-9.8436
簡単に	-9.84371
!!!!!!!	-9.84376
(((	-9.84385
傷	-9.84392
踊	-9.84392
歴史	-9.84393
テーマ	-9.84395
課金	-9.84411
スマブラ	-9.84413
げる	-9.84469
ないといけない	-9.84485
ていう	-9.84488
るのが	-9.84492
しなきゃ	-9.84525
れん	-9.84529
▁俺が	-9.84696
はまだ	-9.84813
el	-9.84817
警	-9.84823
カメラ	-9.84827
普段	-9.84828
書いてある	-9.84841
上手	-9.84854
▁ふぁ	-9.84872
せい	-9.84886
ウィ	-9.84912
5000	-9.85006
いいな	-9.85188
比	-9.8523
構	-9.85238
わたしは	-9.85253
介	-9.85263
かもしれん	-9.85264
ゆっくり	-9.85277
戻って	-9.85298
きてる	-9.85301
90	-9.85325
親に	-9.85335
の音	-9.85368
行きます	-9.85474
送る	-9.8548
学校の	-9.85496
だと思って	-9.85532
ニー	-9.85537
イイ	-9.85565
界	-9.85666
術	-9.85689
壁	-9.85694
面白そう	-9.85697
雰囲気	-9.85702
なんだろ	-9.85713
うんうん	-9.85767
って思った	-9.8578
▁ごめん	-9.85825
が欲しい	-9.85901
仲	-9.86012
es	-9.86093
▁自分は	-9.86128
~	-9.86131
握	-9.86142
素晴らしい	-9.86143
ps	-9.86237
▁そりゃ	-9.8626
見ると	-9.86317
うま	-9.8632
自分は	-9.86342
どうなる	-9.86381
▁ありがとうございます	-9.86386
したけど	-9.86412
いるの	-9.86433
どうでもいい	-9.86547
今日の	-9.86566
誤	-9.86576
余	-9.86578
狙	-9.86585
湯	-9.86585
余裕	-9.86585
意識	-9.86587
ギャ	-9.86596
諦め	-9.86598
辞め	-9.86631
にしても	-9.86676
ショタ	-9.86687
待ち	-9.8669
仕	-9.86725
十分	-9.86757
なんだよね	-9.86847
▁ええやん	-9.86882
ko	-9.86905
ければ	-9.86953
▁さっき	-9.86964
連絡	-9.87034
▁おぉ	-9.87058
いいですよ	-9.871
速度	-9.87104
やー	-9.87132
買わ	-9.87229
マゾ	-9.87231
タン	-9.87309
わかります	-9.8731
うぇ	-9.8734
じゃないけど	-9.8735
応	-9.87395
▁レベル	-9.87449
ソン	-9.87454
きゃ	-9.87456
西	-9.87463
ダン	-9.87467
泥	-9.87476
ないのか	-9.87492
Mac	-9.87496
体育	-9.87502
▁自	-9.87554
おめでとう	-9.87558
おります	-9.87568
笑笑	-9.87594
▁なにそれ	-9.87602
行ったら	-9.87663
めん	-9.87675
▁正直	-9.8768
換え	-9.87683
っていうこと	-9.87687
▁そうそうそうそう	-9.87754
っていう感じ	-9.87786
ないのに	-9.87822
的には	-9.87831
どっちも	-9.87833
からさ	-9.87877
▁P	-9.87887
証	-9.87906
平成	-9.87955
▁よろです	-9.87974
でしたっけ	-9.88056
楽しそう	-9.88062
それでも	-9.88178
なのね	-9.88245
そこは	-9.88263
にならない	-9.88305
剤	-9.88368
性能	-9.88411
やはり	-9.88465
ましょ	-9.88503
ぎゃ	-9.88615
せた	-9.8862
おか	-9.88622
古い	-9.88668
済み	-9.88678
ハード	-9.88729
っぽ	-9.88738
可能	-9.88771
されました	-9.88774
★	-9.88827
獣	-9.88827
廃	-9.88827
文章	-9.88834
おじさん	-9.88847
キリ	-9.88986
21	-9.89
スコ	-9.8902
ナイ	-9.89027
騒	-9.89239
沢	-9.8926
イヤホン	-9.89282
ピアノ	-9.89282
最低	-9.8931
▁こわ	-9.89321
wwwww	-9.89328
小学生	-9.89341
あとで	-9.89342
仲間	-9.89343
だったのか	-9.89345
のせいで	-9.89359
遊ぶ	-9.89402
そうなんですか	-9.89407
学部	-9.89428
うそ	-9.89437
考える	-9.89459
やります	-9.89498
ドル	-9.89529
のとこ	-9.89593
これを	-9.89597
変える	-9.89666
イク	-9.8969
HA	-9.89698
になると	-9.89703
]	-9.89738
▁ヨッシー	-9.89745
乗っ取り	-9.89784
用意	-9.89819
言うと	-9.89914
時半	-9.89929
なーい	-9.89956
DS	-9.89988
違	-9.89998
ing	-9.9
チョ	-9.90139
にゃー	-9.90153
のゲーム	-9.90155
͡	-9.90197
アプデ	-9.90197
だったっけ	-9.90206
勝ち	-9.90365
そん	-9.90421
▁D	-9.9046
くら	-9.90484
▁ありがとう	-9.90492
コッペ	-9.90542
個人的に	-9.9055
▁日本語	-9.90592
てー	-9.90645
▁ここで	-9.9065
協	-9.90658
脱獄	-9.90659
バカ	-9.90705
止	-9.90728
なんですね	-9.9077
なくていい	-9.90771
飛んで	-9.90818
と思ってた	-9.90855
友達が	-9.90859
ますよね	-9.90869
しちゃう	-9.9088
cm	-9.90939
としては	-9.90991
▁かわいそう	-9.91
みんなで	-9.91026
録	-9.91064
人気	-9.9111
致	-9.9112
飼	-9.91121
影響	-9.91123
夏休み	-9.91142
ホーム	-9.91168
らい	-9.91174
たりする	-9.91193
バッ	-9.91251
よくわからん	-9.91511
バック	-9.91543
写	-9.91576
と思ってる	-9.91581
支	-9.91585
効果	-9.91591
こない	-9.91593
報告	-9.91594
MOD	-9.91608
ダメです	-9.91665
▁勉強	-9.91712
ねこ	-9.91727
▁本当	-9.91803
入力	-9.91865
キン	-9.91885
けない	-9.9192
いち	-9.91929
▁怖い	-9.91968
お願い	-9.92005
みたいです	-9.92009
便	-9.92009
はいはい	-9.92013
良く	-9.92029
順	-9.9204
富	-9.92053
晒	-9.92053
ll	-9.92068
オフ会	-9.92079
んだけどね	-9.92128
▁暇ですねぇ	-9.92129
言え	-9.92194
考	-9.92199
かって	-9.92247
とかさ	-9.92264
っていって	-9.92268
のせい	-9.92276
持ってない	-9.9235
つまり	-9.92357
だけどね	-9.92363
求め	-9.92366
飽き	-9.92424
申	-9.92521
汁	-9.92523
欠	-9.92523
イタリア	-9.92523
就職	-9.92525
原因	-9.92528
追	-9.92594
お茶	-9.92618
32	-9.9263
落ちます	-9.9263
▁マダム	-9.9264
▁わかった	-9.92711
▁やあ	-9.92715
音が	-9.92716
死ね	-9.9281
限り	-9.92823
トン	-9.92843
センス	-9.92852
意外と	-9.92865
なるほどね	-9.92895
笑い	-9.92929
こないだ	-9.92931
過ぎて	-9.92975
サービス	-9.92994
しばらく	-9.92994
パスワード	-9.92994
くれない	-9.93041
忘れてた	-9.93103
するな	-9.93243
どういうこと	-9.93318
活	-9.93348
多すぎ	-9.93366
am	-9.9339
んやろ	-9.93422
降り	-9.93447
こわ	-9.93451
盛	-9.93466
永	-9.93468
年前	-9.93484
得意	-9.93491
917	-9.93528
始め	-9.93532
じゃんね	-9.93569
▁夜	-9.93597
電気	-9.93856
ルーカスさん	-9.93885
まれ	-9.93886
症	-9.9394
嫌な	-9.9398
▁あれは	-9.9402
っぺ	-9.94033
せば	-9.94068
あああ	-9.9407
ニュース	-9.94076
燃え	-9.94086
もふもふ	-9.94195
すぎた	-9.94273
りゅ	-9.94292
ガキ	-9.9431
思え	-9.94356
姉	-9.94417
総	-9.94423
ページ	-9.94424
気づいた	-9.94425
運転	-9.94448
思わ	-9.94492
ぶん	-9.94578
hi	-9.94584
ないぞ	-9.94649
sh	-9.94651
小学校	-9.947
の日	-9.9481
ティー	-9.9481
600	-9.9484
称	-9.94858
ござい	-9.94912
ないと思う	-9.94921
ここまで	-9.94929
▁お疲れ様です	-9.94936
たべ	-9.9499
ごはん	-9.95008
があるの	-9.95024
くね	-9.95074
ちゅう	-9.95171
われる	-9.95202
手を	-9.95239
サブ	-9.95295
下に	-9.95296
いじめ	-9.95363
井	-9.95375
36	-9.95381
億	-9.95387
状況	-9.95387
『	-9.95387
印象	-9.95389
だなあ	-9.9541
知らんけど	-9.95431
('	-9.95452
チュー	-9.95538
>>	-9.95563
シェ	-9.95598
忙しい	-9.95601
ああいう	-9.95643
ッコ	-9.95646
かったら	-9.95657
手が	-9.95668
頭が	-9.95669
▁どんな	-9.95687
立ち	-9.9571
おいしそう	-9.95728
最後の	-9.95783
ないんだ	-9.95815
偽	-9.9583
読め	-9.95859
造	-9.95864
酔	-9.95872
∀	-9.95872
濃	-9.95872
窓	-9.95873
かもしれません	-9.95873
ばかり	-9.95894
そいで	-9.95904
人です	-9.95908
お前ら	-9.95919
ことはない	-9.95953
したから	-9.95973
両方	-9.95992
消えた	-9.95995
っすよ	-9.96044
わない	-9.9609
を持って	-9.96115
やべ	-9.96194
の曲	-9.96237
空気	-9.96248
おいて	-9.96292
たしか	-9.96294
▁これが	-9.96359
カービィ	-9.9636
びっくりした	-9.96393
ブラック	-9.96428
えます	-9.96509
忘れて	-9.9652
wwwwwwwwwwwwwwww	-9.96542
めた	-9.96542
ッツ	-9.96682
静か	-9.96702
ようかな	-9.96704
高校生	-9.96728
用の	-9.96776
宮	-9.96805
禁	-9.96846
▁りんご	-9.96846
月曜日	-9.9685
👍	-9.9685
ロシア	-9.96853
処理	-9.96875
゙	-9.96876
貰	-9.96889
分からん	-9.96896
ti	-9.96922
よくある	-9.96965
まさか	-9.96994
目に	-9.97115
消え	-9.97193
何でも	-9.97232
乗っ取	-9.97282
詞	-9.97324
疑	-9.97337
』	-9.97343
に対して	-9.97353
▁無	-9.97355
▁なぜ	-9.97374
▁はえー	-9.97379
のですが	-9.97513
んやけど	-9.97526
消した	-9.97803
▁やだ	-9.97838
値段	-9.97845
借り	-9.97898
コア	-9.97912
だと思います	-9.9794
ブレ	-9.97956
ああああ	-9.97991
▁****	-9.98011
サバ	-9.9804
▁そうなの	-9.98099
うぇいうぇいうぇいうぇい	-9.98149
荒	-9.9817
臭	-9.98237
のサーバー	-9.98315
埼玉	-9.98325
都	-9.98332
泊	-9.98335
妹	-9.98336
ワロタ	-9.98336
pe	-9.98344
必ず	-9.98345
系男子	-9.98352
平和	-9.98358
変わり	-9.98402
▁わどさん	-9.98404
みます	-9.98414
作成	-9.98451
連れて	-9.98466
ってことは	-9.98541
いいんだけど	-9.98555
▁いつも	-9.98576
なくって	-9.98589
ハー	-9.9862
.....	-9.98647
事故	-9.98744
軽い	-9.98781
酒	-9.98796
札	-9.98835
どちら	-9.98839
実家	-9.98854
歩いて	-9.98861
能力	-9.9889
こんにちは	-9.98936
女性	-9.9894
楽しかった	-9.98948
といて	-9.98986
僕が	-9.99017
遅く	-9.99132
よりは	-9.99132
ますねぇ	-9.99214
コロ	-9.99249
してみる	-9.99274
超え	-9.99288
仮	-9.9933
だんだん	-9.9938
それだけ	-9.99399
とおもう	-9.99437
たのしい	-9.99466
エラー	-9.99526
考えた	-9.99606
▁おはようございますー	-9.9981
そうだけど	-9.99825
込	-9.9985
悪く	-9.99939
いいのか	-9.99949
チャン	-9.99989
なかったから	-10.0004
見てない	-10.0004
se	-10.0006
昔の	-10.0007
それとも	-10.0016
デス	-10.0018
汚い	-10.0028
掃除	-10.0032
リンゴ	-10.0033
イケメン	-10.0035
知り合い	-10.0035
想像	-10.0035
あっぷる	-10.0036
種類	-10.0036
ソー	-10.0039
▁ロリ	-10.0042
わかんないけど	-10.0043
人がいる	-10.0043
信じ	-10.0044
おもしろ	-10.0045
割り	-10.0049
おき	-10.0052
暇人	-10.0058
できそう	-10.0059
なんも	-10.0065
知って	-10.0065
デン	-10.0081
集め	-10.0082
お疲れ様	-10.0083
師	-10.0084
遺	-10.0086
陸	-10.0086
スーパー	-10.0086
助けて	-10.0088
感染	-10.0088
たた	-10.009
数字	-10.0095
最初は	-10.0098
パイ	-10.0102
いれ	-10.0119
いかん	-10.0124
あるんだ	-10.0124
▁僕の	-10.0125
汚	-10.0126
寝よう	-10.0129
効	-10.0131
イヤ	-10.0133
犯罪	-10.0139
広告	-10.0139
以下	-10.014
未来	-10.014
深夜	-10.0141
って思う	-10.0145
te	-10.0149
弱い	-10.0152
送信	-10.0158
だい	-10.0161
ここの	-10.0162
ありがと	-10.0179
足り	-10.0179
見ない	-10.0181
ot	-10.0186
登	-10.0188
違います	-10.0189
挙	-10.0189
吉	-10.0189
損	-10.0189
ID	-10.0189
くいなさん	-10.0192
の方に	-10.0197
どこか	-10.0197
大人	-10.02
上がって	-10.0203
若	-10.0204
突っ込	-10.0217
詰	-10.0221
名前が	-10.0228
しさ	-10.0231
来てる	-10.0232
申し訳ない	-10.0234
源	-10.024
ki	-10.024
乙	-10.0241
▁高	-10.0255
意見	-10.0256
すげえ	-10.0258
さぁ	-10.0267
子が	-10.0277
as	-10.028
▁私が	-10.0285
大会	-10.0288
筋	-10.0291
凍	-10.0292
桜	-10.0293
認証	-10.0293
禁止	-10.0293
表現	-10.0295
28	-10.0295
んのか	-10.0296
さらに	-10.0297
しますね	-10.0308
なのは	-10.0309
ワイト	-10.0314
おり	-10.0319
なんてこと	-10.0321
吹	-10.0322
ぱん	-10.0322
ハマ	-10.0327
ますけど	-10.0329
ええやん	-10.033
ぜん	-10.034
衛	-10.0345
だったかな	-10.035
謎の	-10.0358
▁わーい	-10.0361
年生	-10.0363
キル	-10.0363
しないで	-10.0367
ないよね	-10.0368
もらえる	-10.0369
画	-10.0391
してしまった	-10.0392
客	-10.0397
※	-10.0398
芸	-10.0398
宇宙	-10.0398
やねん	-10.0398
モンスター	-10.0399
チキン	-10.0404
らず	-10.0416
ベル	-10.0418
最初に	-10.0419
といい	-10.0422
ラム	-10.043
見せ	-10.0432
取られ	-10.0434
▁まじで	-10.0436
があれば	-10.0444
落ちた	-10.0447
起きてる	-10.045
待て	-10.045
おばあちゃん	-10.0451
変更	-10.0451
バージョン	-10.0452
前から	-10.0452
__	-10.0454
下さい	-10.0458
るように	-10.0459
ai	-10.0467
▁眠い	-10.0472
に見えた	-10.0473
みたいですね	-10.0473
Wi	-10.0475
んだよな	-10.0479
音ゲー	-10.0483
wwwwww	-10.0486
多く	-10.0496
焦	-10.0497
だけでも	-10.0501
存	-10.0503
メガネ	-10.0504
掘	-10.0504
꒳	-10.0504
😭	-10.0504
端末	-10.0505
メンバー	-10.0507
されてた	-10.0509
スラ	-10.0512
抜けて	-10.0519
▁そんなこと	-10.0521
ッス	-10.0521
新規	-10.0522
na	-10.0535
▁サーバー	-10.0537
知らなかった	-10.0537
もできる	-10.0544
ランク	-10.0546
欲	-10.0547
もう少し	-10.055
球	-10.0553
交換	-10.0558
になりたい	-10.0559
仕様	-10.0559
かもね	-10.0561
▁B	-10.0568
好きじゃない	-10.0572
ことがある	-10.0572
ルー	-10.0585
このサーバー	-10.0589
キメ	-10.0594
離れ	-10.0604
わりと	-10.0604
足りない	-10.0605
使	-10.0605
りとか	-10.0606
崎	-10.0611
胃	-10.0611
噛	-10.0611
えざめ	-10.0611
じゃないよ	-10.0612
喜	-10.0622
FPS	-10.0624
眠れ	-10.0625
繋が	-10.0626
かもしれないけど	-10.0626
見た目	-10.0631
ケツ	-10.064
全体	-10.0652
節	-10.0665
城	-10.0665
煮	-10.0665
勤	-10.0665
武器	-10.0666
比べ	-10.0669
くっそ	-10.0679
生きてる	-10.0684
あげて	-10.0687
としても	-10.0689
ふりちゃん	-10.0689
▁おやすみです	-10.069
だぜ	-10.0698
ロード	-10.0699
99	-10.0703
ニュー	-10.0705
29	-10.0707
▁何が	-10.0712
64	-10.0713
逃	-10.0715
ずつ	-10.072
なんかさ	-10.0731
ほんま	-10.0743
▁たまに	-10.0749
ドア	-10.0756
マス	-10.076
付いて	-10.0762
ですけどね	-10.0767
にゃん	-10.077
久しぶり	-10.0771
▁スマブラ	-10.0772
算	-10.0773
講	-10.0774
宜しく	-10.0774
老	-10.0774
賞	-10.0774
”	-10.0774
寿司	-10.0774
聞いたこと	-10.0776
生徒	-10.0777
もともと	-10.0778
んだけどー	-10.0789
年間	-10.0791
ふっ	-10.0794
スキー	-10.0805
していた	-10.081
勝て	-10.0811
途中	-10.0812
▁高校	-10.0814
っほ	-10.0815
まれて	-10.082
するわ	-10.0823
ああああああああああああああああ	-10.0825
むり	-10.0826
態	-10.0827
留	-10.0828
&	-10.0829
松	-10.0829
医	-10.0829
5.0	-10.0831
任	-10.0834
身内	-10.0838
利用	-10.0838
薄	-10.0845
暮らし	-10.0852
呼んで	-10.0853
無事	-10.0853
食った	-10.0854
いるから	-10.0858
毎	-10.0862
初期	-10.0863
先生の	-10.0871
頭痛	-10.0879
おおおお	-10.0879
▁草	-10.0879
大変だ	-10.0881
延	-10.0884
47	-10.0884
投稿	-10.0884
漫画	-10.0884
徹夜	-10.0885
チーズ	-10.0893
くなります	-10.0902
殺すぞ	-10.0904
45	-10.0917
ますかね	-10.0918
▁えっと	-10.0919
にとって	-10.0924
んやで	-10.0925
なのよ	-10.0929
行くの	-10.0933
のアイコン	-10.0933
Google	-10.094
額	-10.094
健康	-10.094
│	-10.094
よろしくおねがいします	-10.094
入ってない	-10.0942
魔法	-10.0942
しますよ	-10.0944
てくれ	-10.0946
まとめ	-10.095
▁逆に	-10.0958
けれども	-10.0966
ませんよ	-10.098
▁こわい	-10.0983
決まって	-10.0985
強く	-10.0986
旧	-10.0989
ミー	-10.0995
デスクトップ	-10.0996
いかない	-10.1
世代	-10.1001
こんなに	-10.1001
に入る	-10.1009
が高い	-10.101
問題ない	-10.1014
みたいで	-10.1019
にるく	-10.1024
取った	-10.1025
気をつけ	-10.1028
音声	-10.1031
できれば	-10.104
温	-10.104
精	-10.1049
ip	-10.105
気がします	-10.105
カリ	-10.105
園	-10.1051
カテゴリ	-10.1052
えーっと	-10.1052
天才	-10.1052
いったら	-10.1054
なぜ	-10.1057
どこで	-10.1067
この間	-10.1069
ニルクさん	-10.1082
それから	-10.1084
してきます	-10.1089
こー	-10.109
そっかー	-10.1092
もうすぐ	-10.1094
っしょ	-10.1096
▁そうなのか	-10.1097
退出	-10.1102
八	-10.1108
不思議	-10.1108
聖	-10.1108
認識	-10.1109
迫真	-10.1109
すぐに	-10.1111
要素	-10.1112
地球	-10.1112
実質	-10.1113
時から	-10.1115
専用	-10.1121
チェ	-10.1121
バル	-10.1122
もあった	-10.1125
募集	-10.1137
▁あらら	-10.1139
バリ	-10.1145
その辺	-10.1151
復	-10.1157
してやる	-10.116
削	-10.1165
娘	-10.1165
税	-10.1165
▁各種	-10.1165
を変更する	-10.1165
クリスマス	-10.1166
厳しい	-10.1167
の方は	-10.1171
開いて	-10.1172
おかえり	-10.1175
うううさん	-10.1175
ba	-10.1175
ru	-10.1177
死にそう	-10.1179
▁PC	-10.1183
動物	-10.1183
良くない	-10.1192
ミニ	-10.1194
確	-10.1195
寝た	-10.1205
してる人	-10.1205
かっこ	-10.1206
ty	-10.1207
op	-10.1208
専	-10.121
言われる	-10.1213
族	-10.1219
謝	-10.122
(*	-10.1221
おまえ	-10.1223
容量	-10.1224
終	-10.1233
京都	-10.1235
まってる	-10.1236
おおおおおおお	-10.1245
人もいる	-10.1245
下げ	-10.1245
まて	-10.1247
屋さん	-10.1249
探して	-10.1249
ボット	-10.1255
どっちか	-10.1261
ですからね	-10.1265
理論	-10.1273
すり	-10.1274
ふん	-10.1276
給	-10.1276
まち	-10.1278
詐欺	-10.128
変わらない	-10.128
ジュース	-10.128
呼ばれ	-10.1281
されそう	-10.1282
マルチ	-10.1283
中身	-10.1289
`)	-10.1291
ピンク	-10.1305
お菓子	-10.1306
ne	-10.1311
伝	-10.1315
そのうち	-10.132
ばー	-10.1323
ごめんね	-10.1324
クション	-10.1326
曲が	-10.133
事件	-10.1335
材	-10.1336
ロック	-10.1336
液	-10.1336
チャンネルを非表示に	-10.1338
厨	-10.1338
久々に	-10.1338
悲報	-10.1338
完成	-10.1339
▁おっは	-10.134
▁全部	-10.134
ヴァ	-10.1341
ストレス	-10.1345
っぷ	-10.1345
▁はー	-10.1345
行動	-10.135
危	-10.1352
mm	-10.1355
働いて	-10.1355
▁全然	-10.1369
ex	-10.137
なんだって	-10.1373
規	-10.1389
階	-10.1395
皮	-10.1396
髪の毛	-10.1396
id	-10.1398
と思ったけど	-10.1399
そうだよ	-10.1403
単	-10.1408
ファイ	-10.1409
聞いてる	-10.1416
文化	-10.1417
完全	-10.1427
先生に	-10.1428
▁おっほ	-10.1434
煽り	-10.1436
出せ	-10.1438
カップ	-10.144
導	-10.1451
麻	-10.1453
だろうね	-10.1453
増える	-10.1453
継	-10.1454
翻訳	-10.1454
橋	-10.1454
隙	-10.1454
🔧	-10.1454
フォトナ	-10.1454
横浜	-10.1455
崩壊	-10.1455
電源	-10.1455
強制	-10.1458
何故か	-10.146
抜	-10.1461
サイズ	-10.1463
ふぉ	-10.1464
引っ	-10.1466
学校で	-10.1468
キャン	-10.1473
ガリ	-10.1479
ぶち	-10.1481
もんで	-10.1485
巻き	-10.1494
聞け	-10.1494
着て	-10.1501
んじゃん	-10.1504
んだね	-10.1506
さら	-10.151
泣き	-10.1512
牛	-10.1513
Switch	-10.1513
▁あとは	-10.1513
知識	-10.1514
書け	-10.1515
甘い	-10.1517
通信	-10.1518
ための	-10.1521
正解	-10.1522
君の	-10.1523
あるじゃん	-10.1536
一生	-10.1536
意味ない	-10.1542
▁ほーん	-10.1543
するのは	-10.1547
げん	-10.1547
やれば	-10.155
if	-10.1551
えらい	-10.1555
のように	-10.1556
見つけた	-10.1559
えぇ	-10.1562
晩	-10.1572
▁ようこそ	-10.1573
すげー	-10.1575
単語	-10.1576
悲し	-10.1576
混ぜ	-10.1578
だったか	-10.1579
毎回	-10.1579
ずーっと	-10.158
いますね	-10.1588
今更	-10.1591
の授業	-10.1595
食べ物	-10.1602
売ってる	-10.1602
欲し	-10.1604
やべえ	-10.1606
すんの	-10.1613
いくつ	-10.1618
活動	-10.1621
オフ	-10.1623
炎	-10.1625
高く	-10.1625
なのです	-10.1627
攻	-10.163
抱	-10.1632
dainspc	-10.1632
タイミング	-10.1632
思考	-10.1633
もしかしたら	-10.1633
しまいました	-10.1633
増えた	-10.1636
買	-10.164
出てこない	-10.1641
人数	-10.1645
不足	-10.1647
への	-10.1647
間違えて	-10.165
負	-10.1655
付けて	-10.1655
あなたの	-10.1655
振	-10.1659
ひっ	-10.166
あるし	-10.1661
DL	-10.1661
換	-10.1662
よくわからない	-10.1662
してました	-10.1666
ですよー	-10.1669
ゲロ	-10.1687
方向	-10.1688
厳	-10.169
印	-10.1691
ホテル	-10.1692
丁	-10.1692
梅	-10.1692
筋肉	-10.1694
予想	-10.1694
したくない	-10.1697
幸せ	-10.1697
浮か	-10.1697
建て	-10.17
▁おおー	-10.17
させた	-10.1706
静	-10.171
そこそこ	-10.171
調べて	-10.1714
上げて	-10.1724
he	-10.1726
そうじゃない	-10.1726
▁ワイは	-10.1726
行ってる	-10.1727
私たち	-10.1734
になれ	-10.1739
英	-10.1748
ion	-10.1749
mac	-10.1749
密	-10.1752
空港	-10.1753
ga	-10.1755
位置	-10.1756
無限	-10.1767
間違えた	-10.177
間違え	-10.1776
すい	-10.1778
寝れ	-10.1781
ニート	-10.1785
取れる	-10.1788
有名な	-10.1794
か何か	-10.1796
白い	-10.1797
安全	-10.1806
トロ	-10.181
漢	-10.1812
植	-10.1813
牛乳	-10.1813
らしく	-10.1814
どころ	-10.1815
グラボ	-10.182
指定	-10.182
ゼロ	-10.1821
ee	-10.1823
SSD	-10.183
乗る	-10.1842
チュ	-10.1853
酷い	-10.1856
使い方	-10.186
が来る	-10.1861
段	-10.1866
それこそ	-10.1869
35	-10.1871
布	-10.1872
ナイフ	-10.1872
鬼	-10.1873
らっしゃる	-10.1874
履	-10.1874
匹	-10.1874
限界	-10.1875
目的	-10.1876
グループ	-10.1876
録音	-10.1879
味が	-10.1883
動き	-10.1883
家で	-10.1886
▁何で	-10.1886
を使って	-10.1887
続ける	-10.189
代わりに	-10.1894
やめよう	-10.1898
書か	-10.1908
!?!?	-10.1915
われた	-10.1928
ずれ	-10.193
CPU	-10.1935
縮	-10.1935
に関しては	-10.1935
許可	-10.1935
計算	-10.1936
見えて	-10.1942
ぼう	-10.1955
わろ	-10.1956
そんで	-10.1958
というのは	-10.197
マーク	-10.197
ナス	-10.1976
ダンス	-10.1986
切った	-10.1987
どうしても	-10.1988
できん	-10.1992
ハチワレ	-10.1997
仏	-10.1997
ニコニコ	-10.1997
祖	-10.1997
おんなじ	-10.1997
既に	-10.1997
▁???「	-10.1999
このサーバーでは	-10.2002
はいけない	-10.2003
▁うんうんうん	-10.2004
ところが	-10.2008
0.0	-10.2014
ふぁ	-10.2016
動いて	-10.2016
bo	-10.2027
残り	-10.2028
なんですよね	-10.2032
ことがない	-10.2038
消える	-10.2047
影	-10.2049
当たり	-10.2055
なんですけどね	-10.2055
じゅ	-10.2058
プログラム	-10.2059
滑	-10.2059
剣	-10.2059
くれて	-10.2061
単位	-10.2061
連続	-10.2061
頑張ってください	-10.2067
を作る	-10.2067
うれしい	-10.2078
、、、、	-10.2081
学校に	-10.2085
LV	-10.2087
飽きた	-10.209
ーっと	-10.2095
とか言う	-10.2098
事実	-10.2098
▁ファッ	-10.21
こんばんは	-10.2114
コラ	-10.2117
No	-10.2121
願	-10.2121
尽	-10.2121
馬鹿	-10.2121
といえば	-10.2122
専門	-10.2122
国語	-10.2126
とった	-10.213
が少ない	-10.2131
臭い	-10.2134
何かね	-10.2136
巻	-10.2139
んじゃないか	-10.214
アナ	-10.2147
が痛い	-10.2149
go	-10.2151
長く	-10.2156
友達と	-10.2162
リスト	-10.2164
コレ	-10.2165
ワーク	-10.2166
抜き	-10.2171
外出	-10.2183
受けて	-10.2183
～～～～～～	-10.2184
美味しそう	-10.2185
売り	-10.2188
間違い	-10.219
いらん	-10.2192
AI	-10.2194
アカ	-10.2199
おち	-10.2199
あほ	-10.2204
一気に	-10.2209
グロ	-10.2211
どうにか	-10.2212
なくね	-10.2222
に来て	-10.2227
建	-10.2239
必要な	-10.2241
スープ	-10.2243
こっちは	-10.2243
il	-10.2244
染	-10.2244
昔は	-10.2245
○	-10.2247
カタカタ	-10.2247
層	-10.2247
透	-10.2247
殺し	-10.2247
若干	-10.2248
改造	-10.2248
現在	-10.2249
なんていうの	-10.2249
関西	-10.2249
家庭	-10.2249
持つ	-10.2251
のほう	-10.2258
始	-10.226
あああああああああ	-10.2268
鯖に	-10.2273
平気	-10.2273
ぜひ	-10.2278
じゃないから	-10.2282
なんと	-10.2287
すま	-10.229
始めて	-10.2297
誰が	-10.2301
福	-10.2303
お風呂	-10.2304
vc	-10.2307
土曜日	-10.2311
ワドルディ	-10.2311
絶対に	-10.2317
ファー	-10.2332
ブロ	-10.2333
ni	-10.2342
起	-10.2344
くなりました	-10.2345
RO	-10.2354
な感じ	-10.2361
ウム	-10.2369
んだったら	-10.237
判	-10.2373
在	-10.2374
労	-10.2374
恵	-10.2375
ホント	-10.2375
いません	-10.2375
▁おはよーございます	-10.2377
あああああ	-10.2379
そうそうそう	-10.238
優しい	-10.238
そのあと	-10.2382
ルク	-10.2385
ログイン	-10.2387
ひゃ	-10.2389
見たい	-10.2392
マッチ	-10.2395
らしいよ	-10.241
はいいぞ	-10.241
ラップ	-10.2418
もあるし	-10.242
じゃねえ	-10.2421
期間	-10.2422
本物	-10.243
になっちゃう	-10.243
そこの	-10.2432
あっち	-10.2433
ゲーミング	-10.244
隊	-10.244
位のようだ	-10.244
涙	-10.244
覚えてる	-10.244
買える	-10.2444
でもさ	-10.245
が出て	-10.2463
いいですよね	-10.2466
上がり	-10.2469
育	-10.2469
メモ	-10.2474
スタン	-10.2478
ようだ	-10.2478
行けない	-10.2481
住んでる	-10.2481
安く	-10.2481
になってた	-10.2484
何だ	-10.2484
らせて	-10.2488
ine	-10.2489
を作って	-10.2501
歌って	-10.2502
吹き	-10.2502
省	-10.2505
採	-10.2505
カオス	-10.2505
詳しく	-10.2506
してほしい	-10.2508
ベッド	-10.2512
ライブ	-10.2518
使えば	-10.2524
不安	-10.2524
最大	-10.2527
キュー	-10.2533
ジン	-10.2534
とは思う	-10.2536
デー	-10.2541
どうなんだろう	-10.2554
揺れ	-10.2557
私に	-10.2564
干	-10.257
わざわざ	-10.257
厚	-10.257
洋	-10.257
硬	-10.257
幕	-10.257
闇	-10.257
絶望	-10.2571
死亡	-10.2572
速報	-10.2572
あぁ	-10.2578
ぉぉぉ	-10.2582
いらっしゃい	-10.2583
～～	-10.2585
違った	-10.2586
作りたい	-10.259
しますか	-10.259
行けば	-10.2596
冷え	-10.2602
回って	-10.2607
ちんこ	-10.261
AT	-10.2611
豆腐	-10.2611
ii	-10.2615
眠くな	-10.2615
他人	-10.2619
くなってる	-10.2619
去	-10.2622
ng	-10.2623
呼	-10.2625
案	-10.2631
兵	-10.2635
景	-10.2635
艦	-10.2636
🤲	-10.2636
ワールド	-10.2636
野菜	-10.2637
戦闘	-10.2637
期待	-10.2638
多少	-10.2639
Win	-10.264
フォント	-10.2641
▁なにこれ	-10.2642
閉じ	-10.2645
そのとき	-10.2646
tu	-10.2646
時まで	-10.2648
消して	-10.2653
あるので	-10.266
大きく	-10.2665
トレ	-10.2666
ッテ	-10.2667
最初の	-10.2689
全然違う	-10.2689
使われて	-10.2692
26	-10.2699
壊れ	-10.27
豆	-10.2701
被	-10.2701
庫	-10.2702
栄	-10.2702
日曜日	-10.2702
オススメ	-10.2702
初心者	-10.2702
縛	-10.2702
マリオ	-10.2702
ボイス	-10.2702
関連	-10.2706
かわからない	-10.271
間違って	-10.271
ペース	-10.2711
の前で	-10.2711
mi	-10.2712
スレ	-10.2713
だったけど	-10.2716
とかいって	-10.2723
基本的に	-10.273
次は	-10.274
▁ねるな	-10.2743
あああああああああああああああ	-10.2745
まれる	-10.2748
母親	-10.275
エル	-10.2751
ありますよ	-10.2752
さすが	-10.2757
日本に	-10.2761
潰す	-10.2761
奥	-10.2763
察し	-10.2765
敗	-10.2768
USB	-10.2769
企業	-10.2769
タブレット	-10.2769
包	-10.2769
祝	-10.2769
uwa	-10.277
テンション	-10.2771
mp	-10.2772
感情	-10.2773
頭に	-10.2773
ひとつ	-10.2776
ネギ	-10.2776
と一緒に	-10.2779
正しい	-10.2779
ちょっと待って	-10.2781
ありますよね	-10.2781
ゴー	-10.2784
切る	-10.279
下ネタ	-10.279
タグ	-10.2791
寝れない	-10.2792
▁はぇ	-10.2793
そうかな	-10.28
ドリ	-10.2802
しゃべって	-10.2805
聞いてみ	-10.2805
広い	-10.2815
出てきて	-10.2815
旅	-10.2822
りません	-10.2825
きっしょ	-10.2831
▁おやすみー	-10.2832
NG	-10.2834
兄	-10.2834
歴	-10.2836
豪	-10.2836
霊	-10.2836
rank	-10.2836
に近い	-10.2836
セーブ	-10.2836
定義	-10.2838
夜宮	-10.2842
だったり	-10.2844
みなさん	-10.2845
置き	-10.2852
きのこ	-10.2852
使ってた	-10.2855
ラグ	-10.2856
埋め	-10.2856
みたいなやつ	-10.2864
言い方	-10.2864
抜ける	-10.2869
ないでください	-10.2878
いるので	-10.2879
なんだよなぁ	-10.288
に乗って	-10.2881
でしたか	-10.2885
フライ	-10.2886
ませんね	-10.289
したことない	-10.2892
いこう	-10.2894
ダメだ	-10.2895
向いて	-10.2895
ケース	-10.29
そいつ	-10.2901
回目	-10.2902
寺	-10.2903
叫	-10.2903
ツイッター	-10.2903
選択	-10.2904
複数	-10.2905
教師	-10.2906
ぜい	-10.2909
によっては	-10.291
思ってる	-10.2917
恐ろしい	-10.2918
するなら	-10.292
エイ	-10.2927
来たら	-10.2927
わたしも	-10.2931
31	-10.2939
ジャー	-10.2939
きつ	-10.2941
よろしくね	-10.2944
▁のー	-10.2947
会った	-10.2952
体力	-10.2955
そんなことない	-10.2964
27	-10.2964
へへ	-10.2967
の場合	-10.2967
実際に	-10.2968
馬	-10.2971
夫	-10.2971
束	-10.2971
朝から	-10.2973
ねむい	-10.2977
ちゃいけない	-10.298
論文	-10.2982
飛ぶ	-10.2983
tr	-10.2983
こんばん	-10.2988
ディー	-10.2991
つら	-10.2997
お昼	-10.3011
は無い	-10.3015
寝たら	-10.3018
みようかな	-10.3021
98	-10.3023
あるよね	-10.3025
っすよね	-10.3032
自分に	-10.3037
管	-10.3038
門	-10.304
虐	-10.304
バッテリー	-10.304
シリーズ	-10.304
外国人	-10.3042
よくわかんない	-10.3046
ではなく	-10.3049
過ご	-10.3052
売れ	-10.3055
男の子	-10.3058
音量	-10.3063
許して	-10.3065
発生	-10.3069
どうしよ	-10.3069
と思うんだけど	-10.3069
食事	-10.3083
なんとも	-10.3084
らっしゃい	-10.3095
投	-10.3099
きますね	-10.31
頑張れ	-10.31
ことになる	-10.3104
言える	-10.3104
刑	-10.3106
創	-10.3109
貸	-10.3109
鍋	-10.3109
セキュリティ	-10.3109
喉	-10.3109
単純	-10.3109
ドイツ	-10.3109
気づか	-10.3109
▁帰宅しました	-10.3109
被害	-10.311
書いてあった	-10.311
察	-10.3112
限定	-10.3113
だもんね	-10.3115
合って	-10.3124
▁こんばんわ	-10.3125
は無理	-10.3132
溶け	-10.314
眠気	-10.3144
37	-10.3146
やるか	-10.3162
死んでる	-10.3167
注	-10.3175
そうやって	-10.3175
見てみ	-10.3177
奪	-10.3178
д	-10.3178
ポテト	-10.3178
デザイン	-10.3178
責任	-10.3178
常識	-10.3179
淫夢	-10.3179
気にしない	-10.318
証明	-10.318
おなか	-10.3185
ブルー	-10.3188
いいこと	-10.319
コーラ	-10.3195
飲め	-10.3198
ひょ	-10.3207
3000	-10.3214
終わ	-10.3218
何だっけ	-10.3219
暇だ	-10.3232
はやい	-10.3244
何時	-10.3246
卒	-10.3247
眼	-10.3248
占	-10.3248
午後	-10.3249
自己	-10.3249
オール	-10.3253
悪魔	-10.3253
深い	-10.3256
くなりそう	-10.3268
ノリ	-10.3275
なんじゃ	-10.3278
見てた	-10.3278
なんですかね	-10.328
評価	-10.3281
もはや	-10.3284
シャー	-10.3289
認	-10.3297
知らないけど	-10.3306
いいかも	-10.3307
なんでもない	-10.331
オレ	-10.331
ter	-10.3316
拾	-10.3319
救	-10.3319
考えると	-10.3319
接続	-10.332
▁にゃーん	-10.3325
自信	-10.3326
そこから	-10.334
んすか	-10.3343
ぜー	-10.3344
なんかこう	-10.3349
増え	-10.3349
人類	-10.3357
入れない	-10.3362
こんなの	-10.3376
ガイ	-10.3377
宅	-10.3384
暖	-10.3389
ビデオ	-10.339
藤	-10.339
覧	-10.339
実況	-10.339
解除	-10.3393
ニア	-10.3396
▁はーい	-10.3399
いい感じ	-10.3401
に見える	-10.3409
上がった	-10.3412
そろ	-10.3414
js	-10.3417
含	-10.3418
スペ	-10.3424
だったんだ	-10.3429
に住んで	-10.3432
ver	-10.3433
降って	-10.3445
この辺	-10.3446
合わない	-10.3447
ちゃいました	-10.3454
靴	-10.3461
舞	-10.3461
児	-10.3461
きゅうり	-10.3461
針	-10.3461
モデル	-10.3461
勘違い	-10.3462
突然	-10.3462
電話番号	-10.3462
ワンチャン	-10.3462
務所	-10.3466
慣れて	-10.3466
つよそう	-10.3469
クス	-10.3469
きましょう	-10.348
あなたは	-10.3484
塗	-10.3486
しとく	-10.3489
その子	-10.3502
ワシ	-10.3504
くはない	-10.3506
見れる	-10.3507
よろし	-10.3509
今度は	-10.3513
ビル	-10.3521
襲	-10.3533
ぢ	-10.3533
姿	-10.3533
蹴	-10.3533
ブラウザ	-10.3533
▁ステータス確認	-10.3533
缶	-10.3533
ニトロ	-10.354
ダウン	-10.3544
駄目です	-10.3546
こうなる	-10.3558
▁なで	-10.356
だろうけど	-10.356
抜けた	-10.3561
付いた	-10.3572
やすく	-10.3572
知った	-10.3573
途	-10.3576
為	-10.3602
そんなもん	-10.3602
奇	-10.3605
堂	-10.3605
アップデート	-10.3605
唐揚げ	-10.3606
いっつも	-10.3606
始まる	-10.3607
直接	-10.361
落として	-10.3622
みたいなこと	-10.3624
Fi	-10.3648
終わったら	-10.3648
勉強して	-10.3652
▁ほー	-10.3652
このまま	-10.3657
まだまだ	-10.3666
っせ	-10.3667
スマホで	-10.367
任せ	-10.3672
崩	-10.3678
床	-10.3678
敬	-10.3678
エイプリルフール	-10.3678
成功	-10.3678
いいんじゃね	-10.3679
判断	-10.368
開始	-10.368
入ってた	-10.3684
かなしい	-10.369
テロ	-10.3693
続けて	-10.3695
ウェイ	-10.3697
たほうがいい	-10.3704
言いたい	-10.3704
レート	-10.3707
ge	-10.3708
タッチ	-10.3712
▁で行	-10.3716
サボ	-10.3718
わぁ	-10.3728
mu	-10.3731
すけ	-10.3731
居る	-10.374
幸	-10.3746
郎	-10.3749
坂	-10.3752
違和感	-10.3752
典	-10.3752
せっかく	-10.3752
頂	-10.3752
仮想	-10.3753
思います	-10.3753
確定	-10.3754
歌詞	-10.3755
提	-10.3757
ミルク	-10.3758
たりして	-10.376
人多い	-10.3762
大量に	-10.3763
2.	-10.3767
進化	-10.3767
んでしたっけ	-10.3777
何故	-10.3782
せず	-10.3783
すべき	-10.3796
楽しく	-10.3805
0000	-10.3806
読んだ	-10.3806
集中	-10.381
お話	-10.3812
プル	-10.3817
際	-10.3821
鎖	-10.3826
底	-10.3826
釣	-10.3826
範囲	-10.3826
ディスコード	-10.3826
▁うーむ	-10.3827
否定	-10.3827
起きたら	-10.3827
天気	-10.3829
笑って	-10.3832
重要	-10.3835
まれた	-10.3835
でしたね	-10.3837
出来た	-10.3843
色々と	-10.3845
消せ	-10.3858
まくる	-10.3858
中学生	-10.3862
生え	-10.3863
って言ってる	-10.3865
っくり	-10.3866
34	-10.3887
でーす	-10.3891
のだろうか	-10.3893
快	-10.3897
武	-10.3899
練	-10.39
至	-10.3901
お知らせ	-10.3901
停止	-10.3901
リュリュ	-10.3901
短い	-10.3902
まともに	-10.3903
青森	-10.3903
台風	-10.3906
ハッカー	-10.3907
買い物	-10.3917
コピー	-10.3918
んかった	-10.392
同時	-10.3921
酷	-10.3922
食べない	-10.3926
テープ	-10.3931
しようぜ	-10.3933
乗った	-10.3934
行ってきます	-10.3935
スパイ	-10.3937
付ける	-10.3944
ェェ	-10.3949
っすねぇ	-10.3951
アド	-10.3963
真面目に	-10.3964
デカ	-10.3965
浮	-10.3965
.........	-10.3969
念	-10.3973
┻	-10.3976
プレゼント	-10.3976
▁ほおん	-10.3979
覚える	-10.398
なくてもいい	-10.3982
デュ	-10.3984
バンドリ	-10.3987
赤い	-10.3988
近くに	-10.3995
祭り	-10.3997
ええええええ	-10.3999
くても	-10.3999
▁おやす	-10.4008
▁はえ	-10.4019
win	-10.4021
パーティ	-10.4025
km	-10.4025
▁こんにちはー	-10.4044
貰え	-10.4046
―	-10.4052
侵	-10.4052
ガバガバ	-10.4052
メッタ刺し	-10.4052
エアコン	-10.4052
ちっちゃい	-10.4052
障害	-10.4052
リア友	-10.4053
飯テロ	-10.4053
されたら	-10.4053
相当	-10.4054
バラ	-10.4055
発狂	-10.4056
▁いやいや	-10.4057
壊れた	-10.4061
耐え	-10.4067
700	-10.4072
▁おつかれ	-10.4077
してんの	-10.4088
完	-10.4088
ぁぁぁぁ	-10.4088
ban	-10.4097
くださ	-10.4099
お店	-10.4103
故	-10.4104
返す	-10.4112
編	-10.4114
パン粉	-10.4121
基	-10.4122
送った	-10.4127
紅	-10.4127
ぽん	-10.4128
見つけ	-10.4128
友だち	-10.4128
自己紹介	-10.4128
養	-10.4128
露	-10.4128
バトル	-10.4128
たすけて	-10.4128
免許	-10.4129
電池	-10.4129
苦労	-10.4129
オーナー	-10.413
主義	-10.4131
!!!!!!!!!!!!	-10.4135
差し	-10.4137
見たことない	-10.4137
アリ	-10.4137
悪かった	-10.4139
できたら	-10.4144
パスタ	-10.4151
無く	-10.4152
ャ	-10.4155
分ぐらい	-10.4164
▁おはようです	-10.4165
荒れ	-10.4166
one	-10.4167
ずら	-10.4188
貴	-10.4193
AR	-10.4196
ターン	-10.4199
ガンダム	-10.4205
コンピュータ	-10.4205
坊	-10.4205
平均	-10.4205
カフェイン	-10.4207
消費	-10.4207
固定	-10.4208
おつかれさま	-10.4211
幼女さん	-10.4227
わかりません	-10.4228
可愛	-10.4232
美味い	-10.4236
友	-10.4237
ようになる	-10.4249
駄目	-10.4255
変わってる	-10.426
～～～	-10.4262
あああああああ	-10.4271
映	-10.4282
唐澤貴洋	-10.4282
URL	-10.4282
絞	-10.4282
麦	-10.4282
つよつよ	-10.4282
我慢	-10.4283
きょ	-10.4283
検査	-10.4283
リズム	-10.4283
ふざけ	-10.4283
小並感	-10.4284
ベース	-10.4285
少女	-10.4288
ベン	-10.4289
インフル	-10.429
んだもん	-10.4292
っとく	-10.4294
当たり前	-10.4295
wwwwwwwwwwww	-10.4303
ふふ	-10.431
とか言われて	-10.432
開けて	-10.4323
食べられ	-10.4326
つなが	-10.4327
そうだよねー	-10.433
続け	-10.4332
途中で	-10.4338
で十分	-10.4349
38	-10.4354
秋	-10.4359
障	-10.436
領	-10.436
ハンバーグ	-10.4361
唱	-10.4361
還	-10.4361
尾	-10.4361
スタイル	-10.4361
自体は	-10.4361
午前	-10.4361
べつに	-10.4362
始まった	-10.4362
チャーハン	-10.4362
ループ	-10.4363
テキスト	-10.4364
来週	-10.4366
控え	-10.437
だるい	-10.4376
上手く	-10.4378
使ってない	-10.438
恥ずかしい	-10.4382
これ以上	-10.4385
二人	-10.4394
キロ	-10.4395
られます	-10.4399
せいで	-10.4405
400	-10.441
立つ	-10.4422
耐	-10.4424
しかいない	-10.4426
と思いますよ	-10.4426
探す	-10.4427
ハム	-10.443
示	-10.4437
弁護士	-10.4439
×	-10.4439
おいしかった	-10.444
だらけ	-10.444
違反	-10.4441
素材	-10.4441
異常	-10.4442
偽物	-10.4446
感動	-10.4456
スマホの	-10.4463
流れて	-10.4465
外国	-10.4473
wwwwwww	-10.4478
溶	-10.4483
会う	-10.449
マダム	-10.4499
好きなの	-10.4508
銀	-10.4516
了解	-10.4516
令	-10.4517
災	-10.4518
砂	-10.4518
属	-10.4519
モニター	-10.4519
Java	-10.4519
卍	-10.4519
某	-10.4519
少なくとも	-10.4519
抱き枕	-10.4519
バナナ	-10.4519
完了	-10.4519
▁くっさ	-10.4519
ヤバい	-10.4519
野郎	-10.452
沢山	-10.4522
難しそう	-10.4524
言おう	-10.4526
いいなぁ	-10.4528
やばそう	-10.4529
信用	-10.453
ON	-10.4532
▁やぁ	-10.4537
ええええ	-10.4537
思わない	-10.4541
すでに	-10.4563
モノ	-10.4571
わけない	-10.4572
いいですねぇ	-10.4573
最後に	-10.4582
林	-10.4596
模	-10.4597
に入った	-10.4598
鑑	-10.4598
則	-10.4599
かずかず	-10.4599
語彙力	-10.4599
▁うむうむ	-10.4599
駆	-10.4599
依存	-10.4599
イライラ	-10.4599
わどすけ	-10.4599
以降	-10.4599
すげぇ	-10.4599
ラブ	-10.46
魔剤	-10.46
豚肉	-10.46
何度も	-10.4601
東北	-10.4601
導入	-10.4603
っとった	-10.4604
ほいで	-10.4604
最新	-10.4606
今回は	-10.4607
疲れる	-10.4608
終わらせ	-10.461
んねん	-10.461
そういうふうに	-10.4612
電子	-10.4615
セール	-10.4617
やったことない	-10.4628
パラ	-10.4643
いいなあ	-10.4648
避け	-10.4651
寝てた	-10.4652
似て	-10.4653
土日	-10.4655
ポッ	-10.4657
しまって	-10.4658
違って	-10.4665
教えてくれ	-10.4669
残ってる	-10.467
焼け	-10.4674
雲	-10.4679
添	-10.4679
嫁	-10.4679
凸	-10.4679
桁	-10.4679
爪	-10.4679
うえーーーーーーーーーーい	-10.4679
フォートナイト	-10.4679
候	-10.4679
ぃぃぃ	-10.4679
教科書	-10.4679
証拠	-10.468
ありがたい	-10.468
余計	-10.4681
良さそう	-10.4682
行為	-10.4682
超えて	-10.4683
ランキング	-10.4683
開く	-10.4684
決めて	-10.4686
トゥ	-10.4688
__****	-10.4694
ニック	-10.4696
んだよなあ	-10.4703
きらい	-10.4709
歌う	-10.4715
越え	-10.4716
起きろ	-10.4716
レビュー	-10.4719
走る	-10.4721
打つ	-10.4726
アンチ	-10.4737
仕方	-10.4738
減ら	-10.4744
響	-10.476
胸	-10.4761
メーカー	-10.4761
標準	-10.4761
小さく	-10.4761
文句	-10.4762
判定	-10.4762
地域	-10.4763
残って	-10.4766
オーバー	-10.4766
早起き	-10.4766
伝え	-10.477
れません	-10.4774
頼む	-10.4782
できなかった	-10.4788
最初から	-10.4795
上げる	-10.4797
寝ない	-10.48
パート	-10.481
スモ	-10.4827
歩く	-10.4832
▁わお	-10.4839
争	-10.484
登校	-10.4841
氷	-10.4842
羨ましい	-10.4843
ポイント	-10.4843
明後日	-10.4843
努力	-10.4843
避難	-10.4843
確率	-10.4844
秋田	-10.4844
将来	-10.4844
弁当	-10.4845
反対	-10.4845
ツイート	-10.4845
ds	-10.4846
リュ	-10.4848
大きな	-10.4848
fps	-10.4848
そうすると	-10.485
ショック	-10.4851
性格	-10.4851
パワー	-10.4853
減って	-10.4854
▁おつです	-10.4854
SS	-10.4855
へえー	-10.4869
喋って	-10.4872
よいぞい	-10.4873
min	-10.488
入らない	-10.488
合わせて	-10.4882
頑張る	-10.4887
掛	-10.4888
以前	-10.4888
とか言ってた	-10.489
単に	-10.4901
いつでも	-10.4902
やってみたい	-10.4903
ゴム	-10.4906
IN	-10.4908
談	-10.4923
0%	-10.4924
津	-10.4925
刻	-10.4925
裁	-10.4925
無慈悲	-10.4925
婦	-10.4925
汗	-10.4925
✌	-10.4925
dain	-10.4925
変わらん	-10.4925
砂糖	-10.4925
要するに	-10.4926
遅刻	-10.4926
対象	-10.4926
珍しい	-10.4927
体調	-10.4928
逃げる	-10.493
見たことある	-10.4936
au	-10.4944
出てた	-10.4946
えっち	-10.4951
ぁぁぁ	-10.4959
選ぶ	-10.4967
できません	-10.4967
病気	-10.4969
つかない	-10.4999
然	-10.5001
こんなん	-10.5004
マヨ	-10.5007
尊	-10.5008
却	-10.5009
バニラ	-10.5009
杯	-10.5009
いつの間にか	-10.5009
タイピング	-10.5009
愚痴	-10.5009
体験	-10.5009
納得	-10.5009
黄色	-10.5011
混ざ	-10.5013
調整	-10.5014
▁おかえりです	-10.5015
行ってた	-10.5017
何があった	-10.5021
中国語	-10.503
リスク	-10.5031
テキ	-10.504
そら	-10.5048
ent	-10.5052
tt	-10.5054
話してる	-10.5064
薄い	-10.5069
・・	-10.5069
クリア	-10.507
終わら	-10.5071
痛み	-10.5081
特別	-10.5088
こんなこと	-10.5092
舌	-10.5093
腰	-10.5093
劇	-10.5093
弄	-10.5093
賢	-10.5093
尊師	-10.5093
相談	-10.5093
詳しい	-10.5093
有料	-10.5095
95	-10.5096
教室	-10.5097
呼ぶ	-10.5097
満足	-10.5099
家具	-10.51
ヤツ	-10.5102
ユー	-10.5108
リセット	-10.5125
だろうし	-10.514
無理だ	-10.5144
どうだろう	-10.5145
込め	-10.5148
MO	-10.5154
繋	-10.5154
▁こんちゃ	-10.5161
ボン	-10.517
谷	-10.5176
肌	-10.5177
肩	-10.5177
整理	-10.5179
小林	-10.518
あくまで	-10.5183
自宅	-10.5183
お酒	-10.5184
クリック	-10.5186
▁いってら	-10.519
与え	-10.5203
男性	-10.5206
いっか	-10.5223
されます	-10.5237
抜か	-10.5244
コイン	-10.5248
って言われる	-10.5258
標	-10.5263
金曜日	-10.5263
偏差値	-10.5263
だいじょうぶ	-10.5263
晴	-10.5263
炊	-10.5263
ブリブリブリブリュリュリュリュ	-10.5263
๑	-10.5263
HDD	-10.5263
▁おはやう	-10.5263
真ん中	-10.5263
台湾	-10.5263
起床	-10.5263
多少はね	-10.5264
ポート	-10.5266
怪しい	-10.5267
たまたま	-10.5269
ズレ	-10.5271
48	-10.5272
されてない	-10.5272
炎上	-10.5273
っていうのも	-10.5281
黒い	-10.5282
関数	-10.5284
褒め	-10.5285
チート	-10.5292
一体	-10.5293
自殺	-10.5295
ダーク	-10.53
Re	-10.5304
ったりする	-10.5305
始まって	-10.5305
発音	-10.5308
やってます	-10.5309
忙し	-10.5315
。。。。	-10.5318
お休み	-10.5323
ッカー	-10.5333
そうそうそうそう	-10.5338
年ぐらい	-10.5347
恐	-10.5348
微	-10.5349
兆	-10.5349
及	-10.5349
溜	-10.5349
you	-10.5349
渋谷	-10.5349
始める	-10.5349
ff	-10.535
殺意	-10.5355
くせに	-10.5355
やべぇ	-10.5355
打って	-10.5358
作品	-10.536
なかったっけ	-10.536
られそう	-10.5365
しとけ	-10.5367
カツ	-10.5371
腹痛	-10.5372
SD	-10.5374
fi	-10.538
しとる	-10.5381
いいいいいい	-10.5386
んのかな	-10.5394
【	-10.5397
世の中	-10.5411
合ってる	-10.5415
っしゅ	-10.5415
走って	-10.5418
続き	-10.5421
宿	-10.5432
ありがとうございました	-10.5436
諸	-10.5436
砲	-10.5436
筆	-10.5436
船	-10.5436
伏	-10.5436
Otoko	-10.5436
Д	-10.5436
威	-10.5436
狭	-10.5436
財布	-10.5436
地味に	-10.5437
ディア	-10.5437
会議	-10.5438
都会	-10.5442
100%	-10.5447
じゃなくって	-10.5454
^〜	-10.546
来ました	-10.5469
聞	-10.549
勉強する	-10.5491
私立	-10.5495
かんじ	-10.5499
♂	-10.5524
タイトル	-10.5524
江	-10.5524
申請	-10.5524
条件	-10.5524
盛り上が	-10.5524
画面共有	-10.5524
ロール	-10.5526
番号	-10.5527
地方	-10.5529
レポート	-10.553
トラック	-10.553
第一	-10.5532
TO	-10.5534
メロン	-10.5535
for	-10.5539
学習	-10.5539
ジョン	-10.5544
スキル	-10.5556
わかりました	-10.5583
売る	-10.5596
というより	-10.5601
ツール	-10.5606
UI	-10.5607
ぐらいしか	-10.5608
豚	-10.561
YouTube	-10.5612
ブツチチブブブチチチチブリリ	-10.5612
清	-10.5612
雑談をすることで上がるレベルが	-10.5612
死にたい	-10.5613
計画	-10.5613
やめる	-10.5614
震度	-10.5615
温度	-10.5617
じゃねえか	-10.562
行ったことない	-10.5623
飲み物	-10.5626
やり方	-10.5669
祭	-10.5676
開いた	-10.5677
時ぐらい	-10.5677
コース	-10.568
まあまあ	-10.5683
int	-10.5685
フォロー	-10.5689
乗せ	-10.5691
これはいけない	-10.57
ディスプレイ	-10.5701
伊	-10.5701
宝	-10.5701
あくちど	-10.5701
java	-10.5701
DCC	-10.5701
ひたすら	-10.5701
覚悟	-10.5702
辞書	-10.5702
box	-10.5704
チェック	-10.5706
女装	-10.5707
こたつ	-10.5707
エイム	-10.5707
おおお	-10.5708
集合	-10.5708
ナイト	-10.5708
近所	-10.571
住所	-10.5711
新聞	-10.5711
使いやすい	-10.5712
脳内	-10.5714
パック	-10.5739
ンダー	-10.5749
読めない	-10.5754
止まる	-10.5758
華	-10.5784
落とした	-10.5784
迫	-10.5791
飾	-10.5791
必須	-10.5792
貧	-10.5792
竜	-10.5792
墜	-10.5792
ドラゴン	-10.5792
背景	-10.5792
れんすら	-10.5793
画質	-10.5793
偏見	-10.5794
直す	-10.5798
毎年	-10.5802
じゅう	-10.5811
偉い	-10.5812
ぶつけ	-10.5817
一切	-10.5827
きょう	-10.5828
やらん	-10.5844
com	-10.5859
題	-10.5863
▁マジか	-10.5873
◔	-10.5882
賛	-10.5882
沈	-10.5882
遣	-10.5882
裸	-10.5882
スカイライン	-10.5882
アクセス	-10.5882
勇	-10.5882
菌	-10.5882
リモート	-10.5882
▁おほ	-10.5885
クリーム	-10.5887
おねがい	-10.5888
=>	-10.5891
気持ち悪い	-10.5892
ボード	-10.5899
iOS	-10.5906
んんん	-10.591
働き	-10.5911
狂う	-10.5913
ような気がする	-10.592
扱い	-10.5925
募	-10.5927
こりゃ	-10.5929
けばいい	-10.5932
大切	-10.5937
ite	-10.5939
ルート	-10.5942
負けた	-10.5949
ya	-10.595
ぉぉ	-10.5952
本体	-10.5953
ゲーマー	-10.5957
壊れる	-10.5959
クリス	-10.5963
やろうかな	-10.5964
陰	-10.5973
windows	-10.5974
幻	-10.5974
洗濯	-10.5974
インターネット	-10.5974
お姉ちゃん	-10.5974
サブオーナー	-10.5975
恐怖	-10.5975
さようなら	-10.5976
雑魚	-10.5977
哲学	-10.5978
まちがえ	-10.5979
関東	-10.5979
通報	-10.5981
だと思ってた	-10.6032
GO	-10.6034
聞いたら	-10.6035
入ったら	-10.6043
組み	-10.6047
キュ	-10.6052
になれる	-10.6057
由	-10.6061
ロマン	-10.6064
虚	-10.6067
可哀想	-10.6067
逝	-10.6067
カウント開始してから	-10.6067
Python	-10.6067
いただきます	-10.6067
紅茶	-10.6068
ディスコ	-10.607
伝説	-10.6071
気を付け	-10.6072
してしまう	-10.6074
中華	-10.6075
んじゃないですか	-10.6076
スタンプ	-10.6081
美味	-10.6084
マネ	-10.6108
一言	-10.6109
突っ込んで	-10.611
kg	-10.6118
父親	-10.612
今後	-10.6121
止まって	-10.6121
見かけ	-10.6127
空いて	-10.6131
いいのかな	-10.6133
今週	-10.6138
切れて	-10.6146
わかってる	-10.6147
資	-10.6159
担	-10.616
徳	-10.616
縦	-10.616
軸	-10.616
スポーツ	-10.616
剥	-10.616
▁わろちゃ	-10.6161
名前変え	-10.6162
サポート	-10.6164
投げる	-10.6166
置いと	-10.6167
おもしろかった	-10.617
ほっと	-10.6171
とっても	-10.6174
んですねぇ	-10.6204
気をつけて	-10.6208
夕方	-10.6209
いいっすね	-10.622
tor	-10.6228
好きな人	-10.6232
んじゃねえ	-10.6237
課	-10.625
込んだ	-10.6252
闘	-10.6252
岡	-10.6254
くさい	-10.6254
昇	-10.6255
帝	-10.6255
オープン	-10.6255
需要	-10.6255
ストーリー	-10.6255
放題	-10.6255
経済	-10.6256
ホワイト	-10.6258
エクス	-10.6274
死にます	-10.6276
チーム	-10.6284
しゃべる	-10.629
あーあー	-10.6299
一個	-10.6301
してもいい	-10.6301
ったことない	-10.6302
ひまひま	-10.6303
おもい	-10.6303
価値	-10.6307
ハゲ	-10.6309
男子	-10.632
埋	-10.6321
本垢	-10.6332
待つ	-10.6336
池	-10.6349
😡	-10.635
童	-10.635
確実に	-10.635
券	-10.635
❤	-10.635
ニックネーム	-10.635
契約	-10.635
そうなる	-10.6352
爆弾	-10.6354
ガチ勢	-10.6355
ヨォ	-10.6355
返信	-10.6355
不可能	-10.6356
ドゥ	-10.6357
やってみる	-10.6358
手段	-10.6359
ホール	-10.6367
▁ぬぬ	-10.6371
ゼン	-10.6373
色んな	-10.6373
小説	-10.6374
進め	-10.638
大嘘	-10.6385
ヨシ	-10.6398
ぇぇ	-10.6399
ああああああ	-10.6402
じゃーん	-10.6406
みたいなもん	-10.6429
難しく	-10.6436
ヤク	-10.6437
やめてくれ	-10.6443
局	-10.6445
燃	-10.6446
ディズニー	-10.6446
農	-10.6446
▉	-10.6446
ハロウィン	-10.6446
墓	-10.6446
棄	-10.6446
岩	-10.6446
オレンジ	-10.6446
ディスク	-10.6447
だいすけ	-10.6447
爆破	-10.6449
後悔	-10.6449
連打	-10.6452
オナ	-10.6457
ググ	-10.6468
やりたくな	-10.6472
震え	-10.6474
並み	-10.6482
レベル上げ	-10.6489
教える	-10.6502
見せて	-10.6509
いいと思います	-10.6512
ほほ	-10.6522
亡	-10.6538
因	-10.6542
博	-10.6542
パリ	-10.6543
՞	-10.6543
六	-10.6543
ボカロ	-10.6543
引っ越し	-10.6543
成績	-10.6544
井川	-10.6545
さむい	-10.6546
回避	-10.6546
雑談フォーラム	-10.6546
▁へぇ	-10.6547
バーガー	-10.6549
張り	-10.6552
んやぞ	-10.6563
▁あっふーん	-10.6569
休日	-10.6577
パカ	-10.6577
..............	-10.6577
になれば	-10.6581
化学	-10.6582
生まれた	-10.6596
働く	-10.6598
ちゃいます	-10.66
ガチャ	-10.6601
含め	-10.6602
デブ	-10.6615
エンド	-10.6625
TB	-10.6633
めちゃ	-10.6634
多くて	-10.6637
youtube	-10.6641
易	-10.6641
紫	-10.6641
欄	-10.6641
メリット	-10.6641
タスク	-10.6641
おそらく	-10.6641
夕飯	-10.6642
トーク	-10.6644
卒業式	-10.6646
乗っ取られた	-10.6646
line	-10.6646
不安定	-10.6649
体重	-10.6656
次元	-10.6656
フォン	-10.666
<<	-10.6662
ヤバイ	-10.6664
もいいけど	-10.6664
聞いたことある	-10.6667
動かない	-10.6675
ポリ	-10.6675
インスタ	-10.6682
だいん	-10.6688
物語	-10.6699
と思われ	-10.6705
中学校	-10.6707
BE	-10.6719
寝たい	-10.6721
boo	-10.6724
整	-10.6728
将	-10.6738
PUBG	-10.6738
コメント	-10.674
修学旅行	-10.674
粛	-10.674
鍵	-10.674
☺	-10.674
屈	-10.674
帳	-10.674
核	-10.674
玄	-10.674
Steam	-10.674
臨	-10.674
萎	-10.674
希望	-10.674
ブースト	-10.6741
炭酸	-10.6741
兄弟	-10.6741
確信	-10.6742
あげた	-10.6743
解放	-10.6747
あげよう	-10.6748
自称	-10.675
漏れ	-10.6752
描いて	-10.6759
実行	-10.6761
無かった	-10.6764
顔文字	-10.6765
どうですか	-10.6769
認め	-10.677
大量	-10.6771
投げて	-10.6781
締め	-10.679
呼んだ	-10.6797
イキリ	-10.68
こうなった	-10.681
自鯖	-10.6814
ハック	-10.6822
新しく	-10.6827
漏	-10.6828
査	-10.6839
絡	-10.6839
照	-10.684
ミュート	-10.684
永遠に	-10.684
宗教	-10.6841
もったいない	-10.6842
体温	-10.6843
IT	-10.6844
次第	-10.6845
不便	-10.6846
行きたくない	-10.6846
999	-10.6852
気のせい	-10.6854
切れる	-10.6858
シージ	-10.6867
ゲット	-10.6867
暗い	-10.6875
まあいいや	-10.6876
震	-10.6906
更	-10.6906
触れ	-10.6908
京	-10.6908
折れ	-10.6926
cha	-10.6937
きしょ	-10.6938
CO	-10.694
浴	-10.6941
阿	-10.6941
倉	-10.6941
双	-10.6941
抗	-10.6941
七	-10.6941
iPad	-10.6941
縁	-10.6941
鮮	-10.6941
ケーブル	-10.6941
お年玉	-10.6941
規模	-10.6942
保護	-10.6942
アドレス	-10.6942
配布	-10.6943
もらおう	-10.6945
パターン	-10.6946
告白	-10.6946
仲良く	-10.6957
やりましょう	-10.6958
悲	-10.6959
スーモ	-10.696
買いたい	-10.6964
ji	-10.6972
ダイスケさん	-10.6973
機会	-10.6982
減る	-10.6986
ピザ	-10.6987
なんでもいい	-10.6994
言っちゃ	-10.7003
900	-10.7019
というわけで	-10.7022
おめでと	-10.7024
東方	-10.7029
カウント	-10.7031
っぽく	-10.7037
史	-10.7043
株	-10.7043
慮	-10.7043
ラズパイ	-10.7043
歯医者	-10.7043
脅	-10.7043
Linux	-10.7043
羅	-10.7043
因みに	-10.7043
それぞれ	-10.7044
○○	-10.7044
仕組み	-10.7044
二段階認証	-10.7045
血液	-10.7046
ことあります	-10.7052
払う	-10.7056
帰ってくる	-10.706
寄り	-10.706
なんにも	-10.7063
伝わ	-10.7066
進んで	-10.7074
連休	-10.7076
帰ってきて	-10.7078
出身	-10.7078
日常	-10.7085
調べてみ	-10.7088
だいんさん	-10.71
替	-10.7109
知ってた	-10.7113
800	-10.7138
状	-10.7144
護	-10.7145
亜	-10.7146
イギリス	-10.7146
佐	-10.7146
浅	-10.7146
泳	-10.7146
バレンタイン	-10.7146
∈	-10.7146
コントローラー	-10.7146
а	-10.7146
ドクター	-10.7146
不可避	-10.7146
腹減った	-10.7146
実験	-10.7146
うるせえ	-10.7147
と思えば	-10.7147
冷凍	-10.7148
高速	-10.715
実装	-10.7153
ぶっ壊	-10.7155
やめやめろ	-10.7158
冷たい	-10.7166
そっかぁ	-10.7175
やりたいこと	-10.7176
▁やったー	-10.7192
育て	-10.7195
平日	-10.7201
出せる	-10.7236
遠く	-10.7237
シーン	-10.7243
できてない	-10.7244
岐	-10.725
オーストラリア	-10.725
到	-10.725
アレルギー	-10.725
レギュラー	-10.725
Youtube	-10.725
コピペ	-10.725
革	-10.725
囲	-10.725
ハウス	-10.7251
応援	-10.7251
イリヤ	-10.7251
眼鏡	-10.7251
たけのこ	-10.7251
シンプル	-10.7251
記念	-10.7252
未だに	-10.7252
オメー	-10.7252
奥さん	-10.7258
ゴミカス	-10.7259
機種	-10.7259
合格	-10.726
年末	-10.7271
こともある	-10.7272
女の人	-10.7273
壊れて	-10.7275
発見	-10.7276
バイク	-10.7285
貯め	-10.7287
▁うちも	-10.7289
無知	-10.729
味方	-10.7305
塗り	-10.7319
ime	-10.7321
あたま	-10.7323
よさそう	-10.7339
作曲	-10.7344
提出	-10.7348
そんとき	-10.7348
出かけ	-10.7351
幼	-10.7352
アンテ	-10.7352
互	-10.7355
????????????????	-10.7356
机	-10.7356
緊張	-10.7356
GPU	-10.7356
クッキー	-10.7356
ぶっちゃけ	-10.7356
大抵	-10.7356
荷物	-10.7357
春休み	-10.7358
使おう	-10.7359
集団	-10.7359
わかりやすい	-10.736
ルーター	-10.7363
昼寝	-10.7374
時間帯	-10.7375
そっかそっか	-10.7376
全国	-10.7382
リップ	-10.739
ちょうどいい	-10.7391
生えて	-10.7397
それ以外	-10.7404
授業中	-10.7416
倒れ	-10.7424
多かった	-10.7437
いっぱいある	-10.7448
鯖民	-10.745
可	-10.7457
価	-10.746
炭	-10.7461
BGM	-10.7461
房	-10.7462
沼	-10.7462
釈	-10.7462
___`)∋	-10.7462
▁WELCOME	-10.7462
メンヘラ	-10.7462
フォルダ	-10.7462
落ち着いて	-10.7462
引きこも	-10.7462
よっしゃ	-10.7462
航空	-10.7463
現象	-10.7463
冬休み	-10.7466
同じこと	-10.7466
取得	-10.7467
グレー	-10.7468
掃除機	-10.7468
発売	-10.7468
なつかし	-10.748
ヤク中	-10.7482
呪い	-10.7485
分かって	-10.7504
暴言	-10.7508
スタート	-10.7511
ぇぇぇ	-10.7534
呪	-10.7546
よくわか	-10.7551
庭	-10.7566
域	-10.7566
健	-10.7568
礼	-10.7569
豊	-10.757
幅	-10.757
戒	-10.757
圧倒的	-10.757
難易度	-10.757
スピード	-10.757
拒否	-10.757
鶏肉	-10.757
深谷	-10.757
規制	-10.7571
リアクション	-10.7572
製品	-10.7572
同士	-10.7574
喋れ	-10.7574
フランス語	-10.7578
IQ	-10.7579
対戦	-10.7579
++	-10.7579
ガラス	-10.7586
記事	-10.7587
になっちゃった	-10.76
方言	-10.7604
感じがする	-10.7617
向き	-10.7623
Lv	-10.7625
治った	-10.7631
頼んで	-10.7636
半年	-10.7644
なんというか	-10.767
珍	-10.7676
惑	-10.7677
つかれた	-10.7677
官	-10.7678
明らかに	-10.7678
紀	-10.7678
鬱	-10.7678
取り敢えず	-10.7678
ゆゆうた	-10.7678
召喚	-10.7678
潜	-10.7678
飼い主	-10.7678
騙	-10.7678
請求	-10.7678
才能	-10.7679
天界	-10.7682
道路	-10.7684
ちくわ	-10.7684
予感	-10.7694
無理やり	-10.7698
じゃなく	-10.7708
他鯖	-10.7713
撮った	-10.7714
ゼル	-10.7714
78	-10.7723
いいっすねぇ	-10.7727
扱	-10.7737
トマト	-10.7755
ハンド	-10.7763
くもない	-10.777
うざい	-10.7773
象	-10.7786
堕	-10.7787
拡	-10.7788
鏡	-10.7788
💢	-10.7788
罰	-10.7788
善	-10.7788
冗談	-10.7788
♀	-10.7788
スライム	-10.7788
デュエル	-10.7789
陽キャ	-10.7789
とんでもない	-10.7789
太陽	-10.7789
ろうそく	-10.779
記録	-10.779
一旦	-10.779
復帰	-10.779
PUBGL	-10.7791
おもちゃ	-10.7793
期限	-10.7795
よくわかりません	-10.7796
試合	-10.7803
ライフ	-10.7835
迎え	-10.7838
訴え	-10.7844
信者	-10.7845
載せ	-10.7854
凄	-10.7859
新規さん	-10.7872
▁そそ	-10.7873
バンド	-10.7873
ぶち込	-10.7882
充	-10.7897
スピーカー	-10.7899
競	-10.7899
癒	-10.7899
ワイトはどう思う	-10.7899
└	-10.7899
おまんじゅう	-10.7899
建築	-10.7899
基準	-10.7899
お正月	-10.7899
ッッッ	-10.7899
録画	-10.79
公園	-10.7901
始まり	-10.7901
思ったけど	-10.7903
給食	-10.7905
ピーマン	-10.7906
事情	-10.7911
返事	-10.7935
勝った	-10.7937
荒れて	-10.7953
評	-10.796
本気で	-10.7987
とはいえ	-10.8003
殺せ	-10.8006
研	-10.8011
跳	-10.8012
融	-10.8012
サバイバル	-10.8012
脂	-10.8012
ō	-10.8012
敗北者	-10.8012
往	-10.8012
▁ふむふむ	-10.8012
コスパ	-10.8012
っっっっ	-10.8012
お兄さん	-10.8012
監視	-10.8012
疑問	-10.8013
不可	-10.8014
当たる	-10.8014
違法	-10.8015
温泉	-10.8016
知りません	-10.8017
もしくは	-10.8018
おばさん	-10.8023
当時	-10.8036
マスター	-10.8046
消され	-10.8054
んすよ	-10.8064
聴いて	-10.8065
泣いた	-10.807
じゃなかったっけ	-10.8073
菓子	-10.8074
どんな感じ	-10.8079
勘	-10.8124
Ubuntu	-10.8125
姫	-10.8125
里	-10.8125
モバイル	-10.8125
丼	-10.8125
皿	-10.8125
キャラクター	-10.8125
姉貴	-10.8126
こういうふうに	-10.8127
効率	-10.8127
何ていうの	-10.8127
心臓	-10.8127
埼玉県	-10.8128
だいすき	-10.8131
わんわん	-10.8133
all	-10.8133
感想	-10.8136
超適当	-10.8143
民度	-10.8143
教えてください	-10.8144
pro	-10.8149
不味	-10.8156
どうすればいい	-10.816
夕	-10.8179
持ってきて	-10.818
吹いた	-10.8182
暮	-10.8192
カフェ	-10.8205
都市	-10.8207
徒	-10.8234
婚	-10.824
行ったとき	-10.824
盤	-10.824
巨	-10.824
ウルッセーナ	-10.824
夜更かし	-10.824
嵐	-10.824
敷	-10.824
蘇	-10.824
タピオカ	-10.824
醤油	-10.824
ダメージ	-10.824
是非	-10.824
太鼓	-10.8241
複雑	-10.8241
いちいち	-10.8242
オフライン	-10.8242
突破	-10.8242
頑張ろう	-10.8246
ディング	-10.825
嬉	-10.8354
菜	-10.8355
群	-10.8356
覗	-10.8356
皇	-10.8356
柔	-10.8356
括	-10.8356
枠	-10.8356
崇	-10.8357
刀	-10.8357
矢	-10.8474
吊	-10.8474
裂	-10.8474
議	-10.8588
操	-10.8589
句	-10.8591
販	-10.8593
跡	-10.8593
財	-10.8593
各	-10.8593
銭	-10.8593
封	-10.8593
祈	-10.8593
遇	-10.8593
喰	-10.8593
従	-10.8593
奈	-10.8714
砕	-10.8714
葬	-10.8714
袖	-10.8714
’	-10.8714
診	-10.8714
副	-10.8835
浸	-10.8836
😂	-10.8836
咳	-10.8836
乾	-10.8836
竹	-10.8836
黄	-10.8956
淫	-10.8957
商	-10.8958
儀	-10.8959
❓	-10.8959
劣	-10.8959
圏	-10.8959
挟	-10.8959
魅	-10.8959
傘	-10.8959
魂	-10.8959
徴	-10.8959
柄	-10.9084
悔	-10.9207
臓	-10.9208
港	-10.9208
陽	-10.9208
浜	-10.921
乳	-10.921
糖	-10.921
妙	-10.921
境	-10.9211
傾	-10.9211
揃	-10.9211
没	-10.9211
沸	-10.9211
羊	-10.9211
亀	-10.9211
像	-10.9337
拠	-10.9338
恨	-10.9339
宣	-10.9468
央	-10.9469
彡	-10.9469
政	-10.9599
貢	-10.96
療	-10.96
賊	-10.96
岸	-10.96
酢	-10.96
党	-10.96
否	-10.9732
免	-10.9733
磨	-10.9734
符	-10.9734
納	-10.9816
繰	-10.9869
冊	-10.9869
喘	-10.9869
塊	-10.9869
述	-10.9869
摩	-10.9869
秘	-11.0005
歓	-11.0006
縫	-11.0006
蒸	-11.0006
拳	-11.0006
紛	-11.0006
︎	-11.0006
携	-11.0144
咲	-11.0145
如	-11.0145
龍	-11.0145
鎌	-11.0145
噂	-11.0145
漁	-11.0145
誌	-11.0145
執	-11.0145
幾	-11.0145
猿	-11.0145
畳	-11.0285
排	-11.0285
斜	-11.0285
析	-11.0285
催	-11.0285
🍤	-11.0285
狩	-11.0286
尚	-11.0286
求	-11.0332
築	-11.0428
貨	-11.0428
滞	-11.0428
尿	-11.0428
獲	-11.0428
餌	-11.0428
衣	-11.0428
蔵	-11.0428
渋	-11.0573
司	-11.0573
雇	-11.0573
紋	-11.0573
瓶	-11.0573
兼	-11.0573
抽	-11.0573
以	-11.0607
訓	-11.072
甲	-11.072
飴	-11.072
貯	-11.0817
徹	-11.0867
幽	-11.087
緩	-11.087
涼	-11.1019
賃	-11.1021
貫	-11.1021
†	-11.1021
晶	-11.1021
熟	-11.1021
尻	-11.1021
錯	-11.1021
ゐ	-11.1021
審	-11.1021
必	-11.1168
営	-11.1173
監	-11.1174
河	-11.1175
̫	-11.1175
九	-11.1175
肺	-11.1175
翼	-11.1175
灯	-11.1175
▽	-11.1175
{	-11.1175
姐	-11.1175
🔥	-11.1175
簡	-11.133
〇	-11.1331
喫	-11.1331
瀬	-11.1331
匠	-11.1331
畑	-11.1331
}	-11.1331
糸	-11.1331
虹	-11.1331
邪	-11.1488
隔	-11.1489
益	-11.149
肝	-11.149
奏	-11.149
朗	-11.149
槽	-11.149
🙃	-11.149
哀	-11.149
噴	-11.149
昭	-11.149
維	-11.149
鈍	-11.149
府	-11.1651
凝	-11.1651
看	-11.1651
ヲ	-11.1651
誠	-11.1651
頻	-11.1651
供	-11.1809
籍	-11.1815
承	-11.1815
網	-11.1815
棚	-11.1815
了	-11.1979
唐	-11.198
ゎ	-11.1982
帽	-11.1982
軟	-11.1982
冥	-11.1982
猛	-11.1982
拍	-11.1982
挑	-11.1982
殖	-11.1982
鍛	-11.1982
迎	-11.2075
依	-11.2151
¥	-11.2151
輸	-11.2151
偵	-11.2151
歪	-11.2151
嘲	-11.2151
条	-11.2323
抹	-11.2324
稲	-11.2324
р	-11.2324
沿	-11.2324
脈	-11.2324
償	-11.2324
泉	-11.2492
章	-11.2497
寿	-11.2499
丹	-11.2499
摂	-11.2499
随	-11.2499
垂	-11.2499
巡	-11.2499
疲	-11.2526
辞	-11.2658
複	-11.2672
ヶ	-11.2673
痴	-11.2678
梨	-11.2678
郵	-11.2678
彩	-11.2678
灰	-11.2678
烈	-11.2678
寮	-11.2678
婆	-11.2678
唯	-11.2854
準	-11.2858
就	-11.2859
恒	-11.2859
鉛	-11.2859
譲	-11.2859
枯	-11.2859
寧	-11.286
ゑ	-11.286
∩	-11.286
施	-11.286
織	-11.286
湿	-11.286
撲	-11.286
伴	-11.286
伸	-11.2997
偉	-11.3002
票	-11.3044
熊	-11.3044
州	-11.3044
杉	-11.3045
💥	-11.3045
盾	-11.3045
廷	-11.3045
項	-11.3045
誕	-11.3045
韻	-11.3045
栗	-11.3227
姦	-11.3233
о	-11.3233
穏	-11.3233
腸	-11.3233
卑	-11.3233
忠	-11.3233
滴	-11.3233
遭	-11.3233
陣	-11.3233
刷	-11.3233
輝	-11.3233
😇	-11.3233
漬	-11.3384
詳	-11.3421
妖	-11.3425
拘	-11.3426
寸	-11.3426
鳩	-11.3426
殿	-11.3426
紳	-11.3426
貝	-11.3426
𐤔	-11.3426
−	-11.3426
鉱	-11.3426
🎉	-11.3426
░	-11.3434
避	-11.3486
昨	-11.3614
既	-11.3619
択	-11.362
索	-11.3621
倫	-11.3622
膜	-11.3622
孫	-11.3622
蓋	-11.3622
預	-11.3622
弓	-11.3622
詮	-11.3622
貞	-11.3622
旨	-11.3622
恥	-11.3622
厄	-11.3622
畜	-11.3821
♥	-11.3822
枕	-11.3822
浄	-11.3822
顎	-11.3822
и	-11.3822
◯	-11.3822
仙	-11.3822
巣	-11.3822
繁	-11.3822
駄	-11.4016
般	-11.4017
宗	-11.4024
鶏	-11.4024
停	-11.4024
均	-11.4025
堅	-11.4026
舗	-11.4026
遂	-11.4026
斬	-11.4026
挿	-11.4026
鎮	-11.4026
委	-11.4026
粒	-11.4026
緒	-11.4228
才	-11.4232
疎	-11.4234
概	-11.4234
洞	-11.4234
塚	-11.4234
桃	-11.4234
ヽ	-11.4234
凶	-11.4234
拝	-11.4234
渉	-11.4234
献	-11.4234
痢	-11.4234
ゔ	-11.4234
轢	-11.4234
█	-11.4238
慣	-11.4422
普	-11.4441
策	-11.4446
邦	-11.4447
惨	-11.4447
罵	-11.4447
煙	-11.4447
餅	-11.4447
刃	-11.4447
卓	-11.4447
屁	-11.4447
蜂	-11.4447
請	-11.4664
垣	-11.4664
刈	-11.4664
鐘	-11.4664
揮	-11.4664
妄	-11.4664
謀	-11.4664
拭	-11.4664
浪	-11.4664
$	-11.4664
忍	-11.4665
睡	-11.4885
湖	-11.4887
錠	-11.4887
拐	-11.4887
敏	-11.4887
┐	-11.4887
塞	-11.4887
┓	-11.4887
擦	-11.4887
詩	-11.4887
柱	-11.4887
粘	-11.4887
賀	-11.4887
泡	-11.4887
寂	-11.5112
悟	-11.5113
軒	-11.5114
丈	-11.5114
仰	-11.5114
妨	-11.5114
萌	-11.5114
霧	-11.5114
撤	-11.5114
枝	-11.5114
潔	-11.5114
炒	-11.5114
勉	-11.5345
舎	-11.5345
匿	-11.5346
┌	-11.5346
͟	-11.5346
拓	-11.5346
掴	-11.5346
獄	-11.5581
湾	-11.5583
懐	-11.5584
誇	-11.5584
訂	-11.5585
薦	-11.5585
ε	-11.5585
⭐	-11.5585
俗	-11.5585
丘	-11.5585
̥	-11.5585
序	-11.5585
脚	-11.5828
蚊	-11.5828
駐	-11.5828
寛	-11.5828
芯	-11.5828
‪	-11.5828
狐	-11.5828
怠	-11.5828
醒	-11.5828
“	-11.5828
孤	-11.5828
庁	-11.5828
塵	-11.5828
誉	-11.5828
偏	-11.6072
績	-11.6077
窟	-11.6078
妊	-11.6078
禅	-11.6078
‬	-11.6078
✋	-11.6078
昧	-11.6078
爺	-11.6078
✨	-11.6078
併	-11.6078
🍎	-11.6078
班	-11.6078
稀	-11.6078
阪	-11.6324
興	-11.6329
季	-11.6334
赦	-11.6335
宴	-11.6335
肥	-11.6335
壺	-11.6335
愕	-11.6335
牧	-11.6335
爽	-11.6335
恩	-11.6335
締	-11.6467
荷	-11.6593
紐	-11.6598
嬢	-11.6598
е	-11.6598
◞	-11.6598
苗	-11.6598
蒲	-11.6598
◟	-11.6598
◉	-11.6598
股	-11.6598
援	-11.6868
愚	-11.6868
⌒	-11.6868
絆	-11.6868
痒	-11.6868
胡	-11.6868
輔	-11.6868
鴨	-11.6868
剃	-11.6868
у	-11.6868
😱	-11.6868
冒	-11.6868
衆	-11.6868
😊	-11.6868
督	-11.6868
齢	-11.7139
識	-11.7141
討	-11.7145
蟹	-11.7146
猥	-11.7146
ʔ	-11.7146
錬	-11.7146
擬	-11.7146
炉	-11.7146
縄	-11.7146
喪	-11.7146
ᴗ	-11.7146
僚	-11.7146
с	-11.7146
伺	-11.7146
妬	-11.7146
揉	-11.7146
酬	-11.7146
●	-11.7146
胞	-11.7146
係	-11.743
環	-11.7432
俳	-11.7432
ʕ	-11.7432
椒	-11.7432
曇	-11.7432
衰	-11.7432
н	-11.7432
媚	-11.7432
呆	-11.7432
躍	-11.7432
剰	-11.7432
著	-11.7432
撒	-11.7432
浦	-11.7432
律	-11.7724
険	-11.7725
拒	-11.7726
之	-11.7726
召	-11.7726
凡	-11.7726
疫	-11.7726
翔	-11.7726
訪	-11.7726
挫	-11.7726
蛇	-11.7726
叱	-11.7726
眩	-11.7726
隷	-11.7726
🥺	-11.7726
瞬	-11.7995
釜	-11.8029
潮	-11.8029
署	-11.8029
槍	-11.8029
淵	-11.8029
芝	-11.8029
仁	-11.8029
鶴	-11.8029
瀧	-11.8029
阻	-11.8029
痺	-11.8029
患	-11.8029
愉	-11.8029
蓮	-11.8029
捨	-11.8105
秀	-11.8341
範	-11.8341
◇	-11.8341
陥	-11.8341
漠	-11.8341
尋	-11.8341
湘	-11.8341
憎	-11.8341
奢	-11.8341
捜	-11.8342
ʬ	-11.8664
粗	-11.8664
╯	-11.8664
ヾ	-11.8664
憂	-11.8664
🙏	-11.8664
陶	-11.8664
ʖ	-11.8664
贈	-11.8664
也	-11.8664
眉	-11.8664
翌	-11.8664
箸	-11.8664
又	-11.8664
輩	-11.8992
沙	-11.8997
戯	-11.8997
慰	-11.8997
隅	-11.8997
穂	-11.8997
雄	-11.8997
那	-11.8997
鈴	-11.8997
≡	-11.8997
筒	-11.8997
罠	-11.8997
臣	-11.8997
扉	-11.8997
斉	-11.8997
┗	-11.8997
▄	-11.9001
揺	-11.9063
借	-11.93
展	-11.9339
航	-11.934
鼓	-11.9341
招	-11.9342
弊	-11.9342
蓄	-11.9342
刊	-11.9342
嫉	-11.9342
Φ	-11.9342
□	-11.9342
饅	-11.9342
惰	-11.9342
呟	-11.9342
盲	-11.9342
頑	-11.9674
純	-11.9697
呂	-11.9698
鹿	-11.9699
究	-11.9699
ヂ	-11.9699
滝	-11.9699
旬	-11.9699
浩	-11.9699
耕	-11.9699
郡	-11.9699
謡	-11.9699
汽	-11.9699
─	-11.9699
╮	-11.9699
盆	-11.9699
饂	-11.9699
й	-11.9699
━	-11.9699
鯨	-11.9699
蘭	-11.9699
膝	-11.9699
麗	-11.9699
郷	-11.9699
⇨	-11.9699
揚	-12.0064
渇	-12.007
濁	-12.007
л	-12.007
✠	-12.007
秩	-12.007
慈	-12.007
殻	-12.007
逸	-12.007
💪	-12.007
٩	-12.007
旗	-12.007
賭	-12.007
鷹	-12.007
崖	-12.007
弘	-12.007
漂	-12.007
蝿	-12.007
忘	-12.024
❗	-12.0454
責	-12.0454
唇	-12.0454
偶	-12.0454
╭	-12.0454
須	-12.0454
忌	-12.0454
詠	-12.0454
т	-12.0454
憲	-12.0454
智	-12.0454
к	-12.0454
暫	-12.0454
腫	-12.0454
ゝ	-12.0454
💤	-12.0454
茎	-12.0454
溝	-12.0454
塔	-12.0454
覇	-12.0454
牌	-12.0454
贄	-12.0455
旦	-12.0847
溺	-12.0854
沖	-12.0854
髄	-12.0854
憑	-12.0854
棟	-12.0854
籠	-12.0854
в	-12.0854
҉	-12.0854
掻	-12.0854
荘	-12.0854
酵	-12.0854
ヮ	-12.0854
و	-12.0854
☝	-12.0854
唄	-12.0854
∇	-12.0854
逐	-12.0854
斗	-12.0854
≠	-12.0854
У	-12.0854
堀	-12.1271
汎	-12.1271
嗜	-12.1271
樹	-12.1271
緯	-12.1271
ゞ	-12.1271
岳	-12.1271
🙇	-12.1271
⃣	-12.1271
😁	-12.1271
π	-12.1271
弥	-12.1271
愁	-12.1271
懇	-12.1271
只	-12.1271
暦	-12.1271
墨	-12.1706
淡	-12.1706
迄	-12.1706
串	-12.1706
怨	-12.1706
柳	-12.1706
嗚	-12.1706
腺	-12.1706
鋭	-12.1706
椎	-12.1706
架	-12.1706
ρ	-12.1706
傍	-12.1706
鮫	-12.1706
🍋	-12.1706
👌	-12.1706
誓	-12.1706
懸	-12.1706
諭	-12.1706
遮	-12.1706
·	-12.1706
侍	-12.1706
謙	-12.1706
希	-12.216
	-12.216
脊	-12.216
囚	-12.216
乃	-12.216
╰	-12.216
据	-12.216
鮭	-12.216
柿	-12.216
凹	-12.216
拉	-12.216
∧	-12.216
△	-12.216
苑	-12.216
苔	-12.216
屑	-12.216
槌	-12.216
欧	-12.216
窃	-12.216
冠	-12.216
昏	-12.216
櫟	-12.216
🌚	-12.2636
呑	-12.2636
奮	-12.2636
🍆	-12.2636
其	-12.2636
慎	-12.2636
泰	-12.2636
灘	-12.2636
綿	-12.2636
該	-12.2636
鋼	-12.2636
髭	-12.2636
💚	-12.2636
̀	-12.2636
┏	-12.2636
零	-12.2636
顧	-12.2636
慶	-12.2636
旋	-12.2637
笛	-12.2637
是	-12.3136
🌝	-12.3136
😍	-12.3136
懲	-12.3136
胆	-12.3136
扇	-12.3136
怯	-12.3136
雅	-12.3136
掲	-12.3136
綱	-12.3136
🖕	-12.3136
🤪	-12.3136
剛	-12.3136
勃	-12.3136
掌	-12.3136
盟	-12.3136
✧	-12.3136
宰	-12.3137
👽	-12.3137
😋	-12.3137
蜜	-12.3137
瞑	-12.3137
≦	-12.3137
́	-12.3456
抑	-12.3491
漫	-12.3662
芽	-12.3663
幹	-12.3663
👊	-12.3663
胴	-12.3663
骸	-12.3663
壮	-12.3663
鉢	-12.3663
С	-12.3663
м	-12.3663
呈	-12.3663
宛	-12.3663
圭	-12.3663
疾	-12.3663
征	-12.3663
堪	-12.3663
嗅	-12.3663
嘆	-12.3663
珠	-12.3663
拗	-12.3663
僧	-12.3663
磁	-12.3663
趣	-12.4213
窪	-12.4218
澤	-12.4218
烏	-12.4218
汰	-12.4218
促	-12.4218
焚	-12.4218
函	-12.4218
飢	-12.4218
宇	-12.4218
幣	-12.4218
臼	-12.4218
藻	-12.4218
σ	-12.4218
苺	-12.4218
‘	-12.4218
婿	-12.4218
◜	-12.4218
☀	-12.4218
佑	-12.4218
奉	-12.4218
顕	-12.4218
餓	-12.4218
≧	-12.4219
与	-12.4624
慢	-12.4803
授	-12.4804
媒	-12.4806
糧	-12.4806
埃	-12.4807
豹	-12.4807
悶	-12.4807
妻	-12.4807
┘	-12.4807
◡	-12.4807
潤	-12.4807
杏	-12.4807
√	-12.4807
禿	-12.4807
捻	-12.4807
斧	-12.4807
鳳	-12.4807
¿	-12.4807
▀	-12.4814
🥒	-12.5431
柴	-12.5431
棲	-12.5431
讃	-12.5432
φ	-12.5432
紺	-12.5432
曰	-12.5432
猟	-12.5432
梱	-12.5432
😔	-12.5432
⊃	-12.5432
😃	-12.5432
乞	-12.5432
甚	-12.5432
👐	-12.5432
亭	-12.5432
Σ	-12.5432
蛮	-12.5432
儚	-12.5432
虎	-12.5432
౪	-12.5432
縺	-12.5432
粋	-12.5432
摘	-12.6096
掃	-12.6098
硫	-12.6098
荻	-12.6098
菊	-12.6098
亮	-12.6098
累	-12.6098
蛍	-12.6098
ヅ	-12.6098
梗	-12.6098
辰	-12.6098
伐	-12.6098
💦	-12.6098
Ō	-12.6098
β	-12.6098
ฅ	-12.6098
吾	-12.6098
戴	-12.6098
窮	-12.6098
💩	-12.6098
悦	-12.6098
脇	-12.6098
託	-12.6098
姓	-12.6098
薩	-12.6098
┣	-12.6812
纏	-12.6812
❌	-12.6812
樽	-12.6812
桶	-12.6812
斎	-12.6812
狼	-12.6812
辿	-12.6812
錦	-12.6812
弦	-12.6812
捏	-12.6812
∠	-12.6812
簿	-12.6812
🐔	-12.6812
👏	-12.6812
🔪	-12.6812
駒	-12.6812
孕	-12.6813
栽	-12.6813
苛	-12.6813
賄	-12.6813
閥	-12.6813
暁	-12.6813
琴	-12.6813
騎	-12.6813
з	-12.6813
培	-12.6813
訛	-12.6813
弧	-12.6813
軌	-12.6813
叶	-12.6813
◎	-12.6813
郊	-12.6813
🥰	-12.6813
褒	-12.7373
験	-12.7574
己	-12.7577
憤	-12.758
奨	-12.7581
雀	-12.7582
國	-12.7582
👀	-12.7582
巧	-12.7582
祥	-12.7582
═	-12.7582
綴	-12.7582
脆	-12.7582
┳	-12.7582
牙	-12.7582
悠	-12.7582
戮	-12.7582
桑	-12.7582
竿	-12.7582
彰	-12.7582
巾	-12.7582
閣	-12.7582
👋	-12.7582
羨	-12.7582
謹	-12.7582
肘	-12.7582
銅	-12.7582
搬	-12.7582
筑	-12.7582
辱	-12.7582
蝶	-12.7582
侮	-12.7582
騰	-12.7582
😘	-12.7582
̅	-12.7582
漕	-12.7582
韓	-12.8261
裕	-12.8415
醤	-12.8415
廻	-12.8415
杖	-12.8415
ŧ	-12.8415
孝	-12.8415
赴	-12.8415
凌	-12.8415
綻	-12.8415
郭	-12.8415
閃	-12.8415
͈	-12.8415
稚	-12.8415
彫	-12.8415
柑	-12.8415
👼	-12.8415
้	-12.8415
ヱ	-12.8415
旭	-12.8415
炙	-12.8415
🆙	-12.8415
🎊	-12.8415
🗡	-12.8415
凛	-12.8415
曹	-12.8415
膿	-12.8415
雁	-12.8415
ͣ	-12.8415
朴	-12.8415
囁	-12.8415
殉	-12.8415
☣	-12.8415
搾	-12.8415
α	-12.8415
萬	-12.8415
兎	-12.8415
飽	-12.905
肢	-12.9324
澄	-12.9324
敢	-12.9324
Ι	-12.9324
胎	-12.9324
瓦	-12.9324
此	-12.9324
孔	-12.9324
葛	-12.9324
🧐	-12.9324
頓	-12.9324
攣	-12.9324
灼	-12.9324
蔭	-12.9324
۶	-12.9324
Ω	-12.9324
ч	-12.9324
🔫	-12.9324
欅	-12.9324
😩	-12.9324
♯	-12.9324
尖	-12.9324
盪	-12.9324
慨	-12.9324
曽	-12.9324
🍏	-12.9324
‧	-12.9324
煎	-12.9324
憶	-13.0323
庶	-13.0324
痕	-13.0324
б	-13.0324
邸	-13.0324
頬	-13.0324
卿	-13.0324
《	-13.0324
峠	-13.0324
◠	-13.0324
峰	-13.0324
碁	-13.0324
😿	-13.0324
╹	-13.0324
励	-13.0324
🤭	-13.0324
⎳	-13.0324
弐	-13.0324
慄	-13.0324
🙌	-13.0324
ᅠ	-13.0324
⊂	-13.0324
釘	-13.0324
🇫	-13.0324
🇾	-13.0324
🌱	-13.0324
😅	-13.0324
🍵	-13.0324
ᔨ	-13.0324
❄	-13.0324
貪	-13.0324
壱	-13.0324
朱	-13.0324
這	-13.0324
鏑	-13.0324
丙	-13.0324
🤛	-13.0324
擲	-13.0324
💯	-13.0324
晃	-13.0324
蔑	-13.0324
閑	-13.0324
😢	-13.0324
況	-13.1433
功	-13.1434
枢	-13.1435
炸	-13.1435
康	-13.1435
轟	-13.1435
棺	-13.1435
升	-13.1435
🌵	-13.1435
茂	-13.1435
勲	-13.1435
叔	-13.1435
筈	-13.1435
÷	-13.1435
隆	-13.1435
п	-13.1435
⤵	-13.1435
煩	-13.1435
喚	-13.1435
壇	-13.1435
磯	-13.1435
綾	-13.1435
э	-13.1435
笠	-13.1435
覆	-13.1435
辻	-13.1435
齧	-13.1435
克	-13.1435
灬	-13.1435
ˊ	-13.1435
∵	-13.1435
丶	-13.1435
淳	-13.1435
訃	-13.1435
📝	-13.1435
😄	-13.1435
😰	-13.1435
摺	-13.1435
̩	-13.1435
ᔦ	-13.1435
艸	-13.1435
🤜	-13.1435
栓	-13.1435
腱	-13.1436
哲	-13.2635
午	-13.2665
嘗	-13.2685
唆	-13.2685
⤴	-13.2685
尺	-13.2685
ζ	-13.2685
宵	-13.2685
±	-13.2685
✩	-13.2685
я	-13.2685
哨	-13.2685
屍	-13.2685
̏	-13.2685
ͥ	-13.2685
ᴖ	-13.2685
͔	-13.2685
⊙	-13.2685
Р	-13.2685
径	-13.2685
⭕	-13.2685
ٴ	-13.2685
≒	-13.2685
Δ	-13.2685
填	-13.2685
宙	-13.4114
控	-13.5572
菓	-13.5775
努	-13.5776
需	-13.5779
徐	-13.5781
忙	-13.7668
宜	-13.7779
🤗	-13.7781
̇	-13.952
企	-14.0279
翻	-14.0279
欺	-14.028
晋	-14.028
∋	-14.0281
喧	-14.0281
矛	-14.0281
抵	-14.3606
批	-14.3613
諦	-14.8425
緊	-14.8612
膚	-14.8613
璧	-14.8614
巷	-15.8398
峙	-15.8399
娩	-15.84
哺	-15.8401
倦	-15.8402
ღ	-15.8403
ด	-15.8404
॑	-15.8405
麟	-15.8406
麒	-15.8407
鰹	-15.8408
秤	-15.8409
痙	-15.841
疽	-15.8411
疇	-15.8412
漱	-15.8413
滋	-15.8414
泄	-15.8415
檸	-15.8416
檬	-15.8417
扁	-15.8418
巳	-15.8419
媛	-15.842
刹	-15.8421
餐	-15.8422
貿	-15.8423
蕉	-15.8424
芭	-15.8425
膀	-15.8426
腑	-15.8427
胱	-15.8428
燵	-15.8429
炬	-15.843
涛	-15.8431
斐	-15.8432
墟	-15.8433
傑	-15.8434
̋	-15.8435
̊	-15.8436
酎	-15.8437
賂	-15.8438
菩	-15.8439
筐	-15.844
擁	-15.8441
凜	-15.8442
￿	-15.8443
￸	-15.8444
謗	-15.8445
誹	-15.8446
暢	-15.8447
惹	-15.8448
‹	-15.8449
็	-15.845
隕	-15.8451
陛	-15.8452
遥	-15.8453
緋	-15.8454
瀕	-15.8455
娯	-15.8456
┫	-15.8457
臂	-15.8458
晰	-15.8459
喀	-15.846
￼	-15.8461
賠	-15.8462
詣	-15.8463
茄	-15.8464
畏	-15.8465
洪	-15.8466
掟	-15.8467
徘	-15.8468
徊	-15.8469
嚼	-15.847
咀	-15.8471
剖	-15.8472
伎	-15.8473
些	-15.8474
ث	-15.8475
ы	-15.8476
焉	-15.8477
披	-15.8478
惚	-15.8479
嘔	-15.848
轄	-15.8481
踪	-15.8482
謂	-15.8483
耗	-15.8484
循	-15.8485
喩	-15.8486
践	-15.8487
洒	-15.8488
栃	-15.8489
▒	-15.849
ᐛ	-15.8491
躊	-15.8492
躇	-15.8493
箇	-15.8494
氾	-15.8495
贅	-15.8496
畿	-15.8497
倣	-15.8498
窒	-15.8499
禮	-15.85
榴	-15.8501
捧	-15.8502
͞	-15.8503
蠣	-15.8504
肋	-15.8505
捉	-15.8506
茨	-15.8507
沌	-15.8508
暉	-15.8509
劫	-15.851
冤	-15.8511
渓	-15.8512
昆	-15.8513
庄	-15.8514
❥	-15.8515
飩	-15.8516
謳	-15.8517
膏	-15.8518
牡	-15.8519
琲	-15.852
珈	-15.8521
慌	-15.8522
詫	-15.8523
穫	-15.8524
或	-15.8525
憾	-15.8526
娠	-15.8527
蜘	-15.8528
蛛	-15.8529
冴	-15.853
錆	-15.8531
眺	-15.8532
猶	-15.8533
廊	-15.8534
拷	-15.8535
濫	-15.8536
捗	-15.8537
繊	-15.8538
矯	-15.8539
曖	-15.854
蕎	-15.8541
┛	-15.8542
肯	-15.8543
溢	-15.8544
棋	-15.8545
餃	-15.8546
葱	-15.8547
儲	-15.8548
妥	-15.8549
粧	-15.855
憧	-15.8551
姜	-15.8552
菅	-15.8553
勿	-15.8554
茹	-15.8555
潟	-15.8556
殆	-15.8557
馴	-15.8558
膨	-15.8559
礎	-15.856
檎	-15.8561
🌳	-15.8562
撫	-15.8563
肪	-15.8564
云	-15.8565
乏	-15.8566
憩	-15.8567
幌	-15.8568
濡	-15.8569
惜	-15.857
椅	-15.8571
賑	-15.8572
搭	-15.8573
阜	-15.8574
閲	-15.8575
殊	-15.8576
͜	-15.8577
戚	-15.8578
痩	-15.8579
較	-15.858
ڼ	-15.8581
ة	-15.8582
衝	-15.8583
把	-15.8584
辣	-15.8585
湧	-15.8586
譜	-15.8587
匂	-15.8588
挨	-15.8589
拶	-15.859
󠂪	-15.8591
噌	-15.8592
購	-15.8593
彙	-15.8594
勧	-15.8595
距	-15.8596
械	-15.8597
訟	-15.8598
逮	-15.8599
詐	-15.86
舐	-15.8601
驚	-15.8602
稿	-15.8603
雰	-15.8604
̄	-15.8605
‸	-15.8606
紹	-15.8607
踏	-15.8608
🙁	-15.8609
綺	-15.861
̆	-15.8611
貼	-15.8612
冗	-15.8613
‭	-15.8613
濯	-15.8613
契	-15.8613
埼	-15.8613
隈	-15.8613
燥	-15.8614
嘩	-15.8614
曜	-15.8614
牲	-15.8614
犠	-15.8614
